19
24
E6
E0
5C
12
D9
F8
EB
1A
11
F6
F8
F1
E8
F4
00
DF
29
2F
1A
07
39
F7
FD
16
0D
0C
35
FD
18
E8
F1
EA
FD
29
20
E0
09
14
34
E7
30
F6
FA
F9
14
29
23
E1
C6
DB
0C
F6
DE
0A
D9
EA
12
F7
E6
12
13
1B
05
FD
14
1F
26
F0
E8
DD
E9
01
2F
F0
36
D4
D0
E6
0F
CD
E0
2D
FB
21
0B
EB
0B
17
03
EA
44
51
12
39
2C
CA
06
21
41
34
31
1E
FA
37
28
F4
D1
3C
DF
2D
1A
11
1E
C9
11
D9
CE
F5
1B
DD
35
13
DC
E7
35
37
47
4A
1C
F6
1B
FE
18
E6
0E
F9
F6
14
0F
F8
D1
F5
47
FE
2E
4B
30
35
17
27
28
04
16
F6
1B
40
6C
16
0E
11
D8
DD
1E
11
FD
F1
E5
FF
E7
01
CC
FA
FF
11
FF
BE
12
F4
C2
16
FE
20
4C
1E
17
17
09
F2
F7
C9
03
B3
11
D3
47
49
3C
1F
F8
E6
46
14
0C
0E
E6
10
E2
0F
32
C5
EC
1A
1D
34
5F
25
02
D6
C2
C9
2E
11
F9
1B
14
19
E2
12
21
B5
35
E4
02
DD
08
EE
CD
F3
20
2D
5D
35
2B
FA
F3
10
F0
0D
ED
21
D4
09
E8
E9
2B
01
23
1E
23
12
0E
11
17
54
E7
C6
19
3C
71
1A
39
F5
BD
F0
D2
D6
F3
07
FC
E9
25
40
14
F9
3F
F7
40
F8
F6
05
F1
03
00
50
0B
10
14
0D
0E
2D
F2
C4
DC
F3
F5
02
0E
F4
0D
E6
EA
E8
10
BA
DB
E5
EC
D8
CD
07
0D
CC
F8
E9
3F
33
2D
3B
EA
C6
23
F1
01
EF
C1
14
FF
FE
ED
00
15
F6
02
E2
E4
F2
42
11
49
F9
EB
2C
31
58
0A
FC
CD
F5
00
18
DD
E9
09
0C
E6
16
F0
D1
44
D6
F4
ED
E0
09
C6
EF
1C
1E
F4
42
3A
27
57
D8
07
09
E7
01
F5
14
0F
19
E6
29
11
F6
29
23
20
F7
E6
AE
01
D6
DA
09
D7
21
50
24
43
0A
16
D9
25
01
E8
0D
1E
08
08
11
DF
F9
ED
00
1C
E3
D2
E7
2D
FF
AB
E5
17
FC
12
66
38
F8
FA
1C
10
02
1D
CC
0C
F3
19
0B
0D
0F
11
20
D4
1F
EA
DF
0C
F6
16
01
08
1A
3B
19
14
EB
2C
EA
EF
00
D5
E9
F4
FA
D6
E1
11
01
2E
17
1A
D9
EA
22
C0
F0
E5
D3
F9
08
EF
20
02
F4
20
EF
DC
D7
E5
47
F6
10
F7
E8
25
06
05
1D
30
17
F2
E2
EA
E7
F0
08
13
EB
EA
E3
C5
FD
1F
1D
F5
EE
F8
22
1B
F8
30
0F
FC
DF
1D
10
F5
3A
F0
0E
FB
E4
21
F4
F2
D5
20
F5
56
04
0E
E5
4F
FA
04
DD
07
07
F1
EA
E4
EA
4F
0D
FE
F8
0B
F9
44
E3
F4
26
3B
1F
FF
FD
F4
F3
EC
3A
1B
E7
0B
D7
05
1E
0F
22
B4
08
16
0D
43
E3
E3
02
F0
1A
05
1C
B6
C2
F1
E0
D8
26
14
39
1F
35
44
27
18
17
17
1F
DA
13
10
41
FC
1C
0D
05
BF
1F
3B
EA
DC
36
E6
11
EB
DD
27
E6
26
F8
41
46
01
E2
DC
C5
2C
0B
14
23
EA
06
F7
39
C8
18
27
BA
00
D4
05
B9
CE
F1
F6
4C
D3
F8
D5
02
D3
CD
F6
E2
0A
DA
EF
2B
F8
3E
1A
40
07
25
24
DD
D5
FC
C2
DC
EA
EA
00
F7
E2
2A
11
3F
F7
E2
D2
1D
BE
35
E8
4C
1D
22
27
12
F8
F7
FB
10
F3
D5
B0
C2
BE
E7
0C
D9
F4
10
1F
38
F0
F4
FB
F2
EB
F8
EB
20
49
1E
36
7D
4A
F9
42
EC
A8
0B
BA
E9
14
ED
D3
F8
0E
30
0A
04
03
E2
12
09
F2
09
08
D4
0E
3B
02
55
F8
EE
E2
19
BA
C5
BD
F4
CF
1A
27
14
10
75
13
15
2C
CD
F1
F3
09
EE
FB
1B
02
09
D0
CE
F7
F9
00
C4
F6
D2
DD
11
19
08
B4
26
FC
30
E0
C2
EB
DE
DC
D8
D4
C9
D3
15
0D
F8
09
E6
E1
39
14
F8
E5
F4
0A
ED
FB
EE
03
F7
E7
E9
B3
F1
BB
F6
ED
EF
0A
F2
1A
E5
F0
ED
03
28
29
21
F1
3D
23
EE
F8
E3
DE
34
0F
3A
0C
12
DD
26
FC
D7
E1
E7
D6
CD
F3
0F
2A
FF
32
18
FA
26
D8
2E
11
17
FD
BA
FE
00
FE
FC
00
F3
1D
02
FA
EF
D0
01
32
08
D2
EC
ED
38
1E
D2
B3
20
D0
D5
31
07
38
2B
0E
3E
05
2E
02
09
F7
0A
DB
F4
EF
E4
D9
CD
E2
01
03
15
C3
01
46
38
EC
FB
17
03
EF
2C
F0
0F
D4
19
21
06
12
18
E9
EB
BE
D8
F2
B9
0F
E5
2A
CA
1B
C2
CB
E7
E8
3E
01
18
DC
D0
12
F1
23
CB
0A
2A
19
E1
DE
ED
FF
13
FF
08
06
D6
F1
1C
D7
12
C7
19
0B
EC
00
B5
13
27
02
11
09
03
20
E1
BE
12
1B
EB
E2
D0
0A
F1
F3
EA
06
2A
C1
F6
EA
21
E1
EF
F3
21
14
D9
F5
0C
29
27
E1
F4
F1
F6
DA
21
01
0B
FE
DB
FB
FB
EA
3B
FC
12
D2
32
B7
0C
0E
0B
1F
EF
EF
F0
47
F6
21
3B
22
E8
D2
C8
E5
FD
2B
C7
DB
02
D8
DC
F1
E8
27
0A
02
1D
E8
F0
13
F7
16
F7
F5
10
C1
33
21
1B
EF
E5
12
F7
05
13
1D
E3
20
BA
1C
F0
15
09
34
13
EB
D4
07
26
07
DE
12
F2
0D
1B
19
06
12
0D
CA
EA
ED
BC
E2
F4
0F
14
29
2F
EF
0E
10
EA
13
05
2B
F3
D8
16
F0
FE
E5
FF
DA
F4
D7
F4
F1
28
FE
FD
F3
CA
0C
E7
F3
ED
E8
DC
10
02
11
E4
FD
F8
FD
DE
15
2C
29
31
36
4F
F7
C4
FB
2F
E9
F3
DF
CB
FA
02
18
F4
08
E8
FE
B5
F3
03
3C
01
6F
F7
EF
25
0E
EB
FC
1C
02
E2
06
14
2A
D6
AE
AD
E1
F9
2D
FC
09
01
1F
16
1D
F0
50
0A
E4
E9
05
F4
44
0F
10
F2
21
D9
0C
2A
DA
CA
C7
EE
98
FB
0D
03
D8
0B
07
19
C7
DF
41
FA
1D
E3
20
F7
E4
29
24
21
F0
1A
28
F7
ED
21
FC
AE
F6
E1
2D
30
24
FB
FA
0C
48
05
E1
F4
3D
0D
60
36
FA
DB
0B
18
BE
1C
F8
E5
12
D8
92
80
04
D3
F4
E5
EC
DC
0A
13
1B
F2
26
12
EC
D9
C0
06
00
09
06
3A
27
C1
35
F1
E1
1E
0A
C6
9F
CE
F9
CD
04
00
02
B9
12
12
E1
46
18
04
DB
F5
FC
23
11
EF
E9
03
23
11
24
DA
BB
95
BD
E2
E5
12
0E
0C
F5
1D
22
04
F7
0E
22
33
08
FE
09
EC
FD
19
1A
DC
41
64
D6
E3
AE
AE
BA
C1
12
F7
00
F7
FB
3E
16
D9
E2
FC
BC
F5
1A
07
F0
E2
E7
0E
DC
E9
57
2B
E7
F6
F3
95
9F
C1
24
23
1F
F5
FA
FB
1C
FB
09
19
05
01
CA
1C
0A
0A
12
0B
E0
0C
1C
4D
09
F2
C7
A2
83
DF
EA
11
02
D9
0F
ED
FD
C4
0B
0F
1C
F7
01
2B
0C
DB
F6
17
07
6A
FB
16
03
CE
A7
8E
80
BB
F0
3A
F9
FB
05
3C
12
15
1B
17
FD
1C
2E
29
F9
FE
EB
DC
2C
37
3F
3A
D8
F9
8F
A0
80
C3
C2
ED
3B
F5
05
32
06
F9
0D
2B
CE
DE
DE
3E
2E
02
C8
EA
1E
29
FA
09
3A
D1
C6
8D
E8
C5
D8
D6
DF
09
F9
1A
38
2C
11
04
FA
21
C4
1C
DD
E2
D2
FA
05
19
44
20
C9
C9
C0
01
B7
B4
F1
98
DF
F8
22
ED
0C
CC
FE
0F
1F
F7
16
08
CF
0C
FC
0A
AB
CD
FC
FF
17
EF
D7
DD
04
17
02
E8
1E
D9
E4
C3
DC
D1
0B
F6
FB
CA
DB
DA
E9
E3
C4
DD
01
19
F2
17
0E
0D
F0
13
2D
19
F4
0D
34
F4
42
2F
E4
F0
F7
CE
00
0C
08
DF
FA
D1
CB
DD
0E
26
F7
04
28
FB
2B
2B
D5
22
2B
E3
11
ED
FB
D3
20
11
1E
29
16
EC
0D
F6
F9
17
FD
D0
04
CA
E1
E4
FA
07
E6
29
FC
20
29
27
F4
0F
F1
EE
DB
4C
C7
2C
F3
05
C7
09
0D
CF
D4
F1
CB
FA
D5
DF
D5
0E
F4
2B
14
F7
17
21
03
EC
09
D6
34
F7
F6
B3
49
EF
06
FF
CF
BF
05
E3
D5
0A
D4
FB
E7
0F
B6
2C
01
F0
FE
1C
D0
0F
04
DB
E3
0C
0B
FE
1B
06
C6
DB
BA
DA
0C
12
18
D4
11
F1
1C
D0
0A
12
3D
ED
1A
02
22
27
E5
58
09
38
13
14
E3
F5
8F
E0
A7
E2
D7
DA
E5
D4
0B
F6
21
FD
09
F6
0F
E9
1D
19
E4
4A
0B
FD
F7
F3
05
2E
10
DF
E3
FE
B4
CF
EC
F8
FF
CE
F6
E7
0F
08
09
CC
F6
D6
F4
29
FC
37
E6
E1
ED
2E
0C
FE
3F
E5
01
B3
E7
E5
3F
DD
0E
23
10
DB
0D
24
19
E9
A6
21
ED
21
F2
15
F5
58
FE
19
36
12
0F
DE
BB
C3
FF
F6
D0
0F
07
C7
05
CC
D8
02
23
27
E4
09
D0
F8
E8
EE
11
1D
1D
51
1E
DD
15
C4
C0
E1
F3
DD
DB
09
2A
EA
ED
28
E1
1F
0E
1B
C2
BB
18
EC
10
06
1E
17
0E
F7
0A
41
12
EA
C1
C9
F1
E2
FC
DC
D3
15
DE
18
E9
2F
04
18
F1
02
2E
DA
2E
4A
D1
EE
2B
4F
3C
0E
14
E0
C1
E2
FA
13
00
0F
06
C8
1B
06
59
1C
E2
CE
15
DA
29
F0
EE
0F
E5
07
2E
2D
13
F4
F9
D7
F9
D4
AE
EE
ED
F7
C6
CF
DF
E6
27
ED
F1
EC
D9
D8
1B
36
25
1A
3A
33
ED
18
01
1F
E4
24
F7
FF
24
F5
10
12
14
09
F0
1E
09
F8
F8
F8
B7
01
28
F6
28
18
EB
1B
0C
23
EC
24
21
C7
EB
31
C6
BB
F6
CD
03
DE
FC
3D
26
21
0C
EE
F1
D9
1D
01
1F
32
12
FD
EA
04
10
11
05
F5
E2
CD
FD
05
E5
F8
C4
08
F3
D9
44
CC
BA
20
00
FF
2D
0B
12
0B
25
2A
5C
3A
DA
06
E1
BB
DB
EA
E9
F4
1D
19
00
E8
0D
0B
FB
1A
D4
D9
04
F6
EB
FB
41
13
0A
F5
E9
3A
1D
4D
E0
DE
ED
13
08
D0
C8
D7
E5
E4
0F
E3
01
0A
E2
23
28
28
0D
01
E8
DF
0C
25
E1
02
FC
F1
EA
3B
01
EA
07
E6
0E
BA
EC
08
DB
21
DF
DA
EF
FE
0B
0B
41
23
1F
11
1E
E9
F9
2A
0B
12
02
EE
87
F0
D5
DF
FB
12
F2
F0
11
11
EB
FC
F1
0A
1A
23
F4
0D
35
CF
18
FC
D2
35
BE
D5
44
DF
12
D8
0F
00
12
9A
06
E0
FC
EE
06
EB
F2
FC
E5
21
0B
2C
1C
07
E2
07
CD
E5
0A
09
D9
EE
ED
09
20
DC
FD
F0
EB
F3
FE
F7
18
F4
10
11
47
F7
1B
22
07
15
10
03
0C
DA
F6
49
D1
17
E8
0B
11
F5
14
05
21
4F
D5
2A
EC
40
22
F0
13
0F
D9
18
34
06
CD
EE
DA
E6
FB
F6
09
3B
E0
31
E0
25
D4
FE
35
42
19
11
FE
27
4F
2D
3A
22
42
FD
EE
CB
F3
0B
18
EF
0C
25
FE
39
F1
14
01
EC
FD
19
05
EB
D6
F7
F9
E7
1E
F5
14
1D
15
EE
1A
11
DA
E3
DD
FC
03
E5
08
17
B6
F0
DD
D7
F1
18
B9
D5
0B
F2
E2
EC
FD
0F
E9
CF
E8
CA
05
AF
D7
F3
FF
D3
05
EE
DF
1B
B9
D6
10
B8
3B
E2
1B
E7
25
54
E7
F1
05
FE
0D
F6
22
DC
F2
F2
08
12
0A
EB
E6
2F
FA
0D
DE
05
EF
EA
E1
10
F9
18
2D
F0
F6
08
14
3D
CE
25
2B
13
09
30
0C
24
E3
BA
25
AD
3D
E5
0F
0A
F9
E2
1E
40
05
E4
28
22
36
FA
02
30
15
E4
06
0E
46
E1
0B
E6
31
C6
D9
12
BA
10
E9
00
03
35
1D
09
1D
2B
FF
FE
EE
29
F2
1A
22
F3
05
07
EF
08
FA
D5
26
E8
01
E7
E7
18
E5
28
1F
22
FE
FC
04
FB
15
F5
EE
2D
17
05
28
3C
07
31
2E
C8
01
FD
F3
BC
F8
ED
AE
F0
00
05
19
51
1C
2C
F5
06
1E
00
31
2A
F7
4E
0F
F8
2D
CB
F5
0D
FD
EF
00
FD
E8
E0
EF
BD
20
16
FD
E0
2D
0F
15
09
FE
E5
08
06
0C
1F
25
27
03
EF
DF
1A
F8
EF
E4
F1
CF
F0
BF
FA
EF
30
F0
11
D8
F0
1B
FB
11
1E
DD
FF
02
57
E5
0A
06
06
C2
1C
00
F0
DB
06
FC
F5
FA
F9
CF
FF
15
22
1A
1C
FE
01
11
24
4D
30
17
39
1E
15
FB
1F
01
D8
F4
E9
BC
F1
EA
DD
EB
29
F2
3F
45
1B
0B
E8
30
05
25
35
1D
1C
0C
23
EB
F7
F8
F8
03
FD
D4
F5
DC
FB
EE
B7
16
B1
31
37
DA
05
23
F4
F7
1B
0A
FF
09
E6
EC
26
FD
A7
E8
04
E3
E2
CC
CB
D2
02
14
F4
16
02
1B
19
1C
FD
29
E3
15
0B
22
20
F6
43
22
53
FD
02
DF
E6
C6
E9
E8
CC
E2
B3
15
0A
D8
ED
0E
27
1B
0E
1A
EC
ED
C8
13
1F
18
22
CD
EF
DD
EF
33
A0
D9
E5
D9
E8
21
41
BB
EB
08
F5
ED
02
1D
EB
F4
29
17
FB
2E
32
05
D2
BF
A2
CF
CB
CA
C9
C0
01
0D
BF
C8
DD
E9
1D
F3
BE
28
22
FA
2F
09
17
1D
F2
29
10
FD
E7
B4
96
B8
E7
C9
EF
F2
ED
F0
F6
D7
B6
E9
06
FD
FE
D8
10
39
DC
0C
1C
1A
F9
F7
1D
FF
DD
A1
DC
BA
E9
C0
DB
FB
03
A2
DF
B8
1D
00
F1
D2
13
DC
1F
30
F7
E9
FC
B8
15
E6
05
04
E8
FE
A5
FC
E9
E5
CF
CD
03
DB
0F
E6
EC
FC
C0
00
10
0A
25
20
1E
F2
0F
37
1F
EE
27
F8
B6
E0
C8
D9
18
E1
DA
E6
C8
0D
DE
12
CA
13
27
FA
FC
02
09
27
F6
FE
F7
F1
E9
E5
2C
07
1B
E5
FC
C9
20
DF
F2
FA
F3
1A
08
31
03
CA
A9
24
E0
E6
01
F4
04
EC
05
F9
BD
1F
FB
00
0D
E1
EB
EF
D4
19
F8
E9
07
CD
EA
16
E6
D0
FC
F8
26
F2
0E
15
25
FB
2E
3D
FB
20
F5
36
1E
CC
E9
22
02
FB
1C
EB
F0
CE
15
D0
E8
1B
D8
3D
04
F3
10
05
03
00
15
D1
0B
10
16
30
32
E1
FC
D9
0B
E9
FB
E1
D9
E1
28
DE
23
08
DF
1D
03
F5
E1
E6
DD
25
FD
35
05
0A
11
E4
EE
B3
EB
F3
ED
E1
F7
F0
00
04
C3
2B
1A
11
E0
06
FD
FB
09
3B
E7
0E
21
FE
4E
EF
21
16
1D
28
F4
F3
E0
38
D1
06
08
24
D4
E2
E4
17
DF
EC
F2
11
22
3C
CB
E8
F2
1D
1C
09
C6
EE
F0
DD
93
BE
D0
E5
EC
13
BE
E7
1F
0D
30
02
06
DF
FE
F1
FD
69
D6
0E
FC
04
41
07
F8
07
26
F8
FC
B8
BE
C2
05
EA
0A
F5
FD
EB
CA
FB
F3
49
F7
14
EE
FE
D7
1D
D8
24
09
2A
24
03
A8
F4
D6
F6
F1
D2
29
13
12
15
2D
13
D7
39
14
2F
D4
43
12
EA
20
07
1C
02
07
D9
E8
22
F3
CE
33
E1
F5
DB
11
0D
08
25
14
E9
0E
FC
0B
BC
EE
E9
E1
2D
13
CB
EF
0A
A1
33
EE
F3
20
10
E7
03
05
18
FE
1A
E5
17
02
27
FF
27
0C
3C
FC
ED
DE
10
29
0F
E9
DF
02
06
DD
F3
36
EB
17
F6
BE
F8
FD
D2
E8
16
1C
FA
FE
19
FD
18
25
07
EB
C4
F9
4E
56
F3
F9
EC
1D
FE
F3
F3
18
C7
02
EC
00
17
CB
0A
EF
F4
1A
0F
CA
01
21
2A
FA
DD
08
F6
1D
04
F8
C5
FE
31
E0
E2
04
26
0A
09
EB
0D
F1
19
00
EF
F9
29
F0
25
C5
24
24
30
08
F9
FF
E7
0E
1D
F1
FC
05
12
F0
08
0C
F7
F8
03
20
FE
2E
D9
DE
13
0E
17
05
08
21
F0
13
16
3A
FB
FD
11
ED
E8
00
18
EC
F1
08
C1
EF
15
1C
03
E7
FF
EC
05
F0
47
E3
03
0C
10
10
04
1C
06
2D
0F
0A
14
DF
FF
06
ED
E2
E1
FA
4E
08
F0
FE
0D
36
F1
F0
1A
19
4A
14
ED
2C
F6
29
E6
0A
0D
DF
3C
D4
FC
D7
FD
CC
08
12
EB
F8
AE
D6
F8
0E
1B
F1
E2
D9
0D
0F
FB
02
02
AB
F4
62
04
E1
09
D2
F5
1E
05
C9
CD
FE
B7
EE
09
29
FA
F8
1F
1C
3C
EE
04
F9
2D
01
2B
17
EA
1F
F4
03
20
10
BC
0A
0F
01
F8
CA
D0
F2
1A
15
05
E4
F8
CF
C9
D9
F1
BE
F5
F4
09
25
C2
C8
E5
FC
29
18
ED
F5
0D
F7
EB
DC
DE
EB
05
3D
25
35
F7
FE
0A
E6
09
00
EE
F3
1C
07
04
0D
40
E8
09
1D
D2
5D
F2
D6
13
F6
23
29
1D
F6
EC
00
C9
07
EF
0F
CB
F6
0B
FA
F7
05
22
FB
41
0D
05
EB
0C
F5
01
D5
E2
EB
F6
1C
20
0A
0F
E2
2F
DD
05
0A
29
FF
12
FE
F5
12
D9
FF
11
CC
19
28
21
D3
35
DA
01
DD
02
F4
E2
EE
02
D4
CE
EE
17
E2
BF
E5
DD
D0
14
01
CC
01
E0
05
1E
D8
2B
ED
29
E6
FC
44
F2
03
DC
17
C5
06
20
D8
F1
1A
18
0D
07
EC
20
F1
B3
F1
0C
00
AA
31
04
E8
E9
0D
E0
FC
05
11
20
FE
F3
E7
E9
FA
F0
C8
24
32
24
14
F2
06
11
F3
09
31
F4
DE
12
FB
FA
DC
0B
ED
D6
22
EF
0A
14
22
CC
CE
35
E6
0C
1F
00
F4
E2
04
28
1F
09
C4
FB
F1
07
F7
0C
08
0C
D4
D8
FA
0D
E9
C5
FF
F3
0D
CE
4A
11
41
0C
08
01
25
E1
F4
D2
2E
0C
E1
E8
FD
17
1D
04
C7
DF
BA
E7
CE
B6
19
F5
ED
F2
16
1D
01
F4
28
3C
D4
05
E5
16
F7
EE
CC
2E
09
E5
E3
A7
DD
FD
DF
EC
2B
D4
1B
24
E0
1F
EB
06
1A
D9
FC
9D
28
CE
07
42
0F
F0
CA
E0
E2
D0
ED
10
2D
F4
0E
F7
DC
E6
E5
B6
1A
BF
37
ED
47
08
16
FB
05
15
1F
07
0A
F8
26
F5
4F
FE
E4
19
E1
B2
BC
18
05
C2
DB
E9
0E
18
19
F3
F0
0A
1E
15
F4
B7
CE
E4
DE
46
E8
3A
07
FF
10
02
E7
28
17
23
E9
1A
1C
08
FC
F4
3A
EA
FF
09
E8
C2
16
E6
11
00
E1
0D
10
2C
1A
EC
05
D9
F5
0E
DC
EC
F9
B6
0E
0F
9D
DD
34
FC
FC
24
A8
0A
34
F6
F6
DA
FD
D4
01
17
1D
12
E2
F8
D5
EC
BE
22
D2
08
04
45
D1
DB
E3
3D
E9
F9
DF
F8
10
ED
E3
3D
00
D6
CC
BE
17
05
FB
1D
20
08
03
DE
0C
FF
27
D2
F8
FF
E7
21
3E
2B
D2
D6
2B
AF
16
F5
11
D8
05
FC
05
F8
1D
EF
38
EE
FA
27
04
0E
03
F3
44
28
02
1C
10
CE
E6
0B
44
B5
00
E5
D2
2F
0B
16
D3
10
E3
F5
C1
DC
1D
27
1A
E7
01
1C
F0
FA
FB
FD
1D
D0
DE
06
06
E7
41
12
0F
F8
FB
29
E2
D7
ED
FA
F3
0D
04
1C
FE
1E
2B
28
EC
04
F9
27
FC
1C
21
7F
2E
AC
DF
E9
08
14
24
0E
E3
FB
E3
F7
50
DC
D5
37
EF
13
18
EC
1A
F2
C9
F2
01
11
07
27
10
31
25
0A
E9
D5
EF
E0
F3
F4
C8
49
A4
ED
E9
15
19
C9
FF
FF
D4
18
0B
E7
01
F5
DF
07
05
FC
15
E9
DF
F0
D0
CC
CB
FD
B4
D4
08
B9
C8
E8
DD
E3
D5
0A
A8
E1
FC
DB
0A
E4
D8
09
10
18
B8
06
D8
F8
05
C4
B9
C8
B2
10
08
F9
F3
1D
13
AC
02
05
ED
10
DD
F3
2F
0A
ED
05
05
EC
FC
F4
34
C8
14
0B
C3
06
C7
0E
ED
D8
DA
D4
E7
10
F4
CA
00
E1
14
DF
F0
FF
00
ED
1C
0F
0E
FF
1E
F1
EB
18
E2
D8
D6
E4
EA
C3
06
F9
0D
04
E7
13
28
0B
20
F7
21
F7
06
20
E6
0A
E7
59
20
27
2C
CB
E5
FC
DF
EB
31
B8
14
D2
F0
CB
E8
ED
FA
EF
13
15
E3
F6
FA
02
04
48
2B
EC
24
09
DC
12
AB
D8
9D
A5
FB
DE
13
30
DA
07
03
E7
E3
ED
DD
11
05
EC
D6
22
14
0A
08
20
16
15
17
03
CF
C4
BE
A7
D1
CE
B1
D2
FD
F0
C8
1A
94
05
F4
1C
F8
EA
BA
0A
EB
22
25
0D
F2
15
30
25
13
C8
84
BC
D6
C6
A4
CC
EC
02
A0
0E
CA
27
DB
EF
F6
FB
E0
EE
DE
22
1A
15
15
46
F3
35
20
EE
D7
E6
BA
BB
F0
0C
EB
DA
F0
D2
0F
EB
F5
2F
23
F9
FC
FA
21
14
17
21
08
36
05
0D
43
FF
00
C1
D1
F7
DC
E4
13
11
DD
EB
F5
17
F7
C9
DA
ED
EB
F4
36
57
33
35
F3
E9
FD
5D
45
47
0E
FD
35
DE
15
B2
07
D6
FC
CD
E1
32
E5
2A
02
24
E5
EE
D9
3C
0C
39
19
02
19
1E
33
37
3D
21
04
1F
14
F9
F9
2D
47
0D
E0
D1
EB
DB
0D
F3
EC
0C
43
56
13
67
2A
58
2E
0F
45
3D
32
20
48
14
3D
0E
F3
E2
17
FC
02
DA
32
39
EF
F9
BC
04
DE
08
16
59
F7
F6
1D
F2
52
16
0A
F6
06
FB
3B
32
25
46
10
CE
FF
23
D9
1E
13
D5
CE
FA
FF
47
14
F7
2C
F5
ED
12
E9
14
19
FD
2B
12
DA
20
FE
10
EB
21
15
E0
E0
D0
30
09
02
F6
E8
F7
14
36
25
2A
E0
1F
0C
5C
38
27
0D
3E
1F
0A
F6
12
D3
01
CD
D4
F3
04
FE
34
C1
F6
2B
56
F6
3E
0D
F9
24
18
02
F4
08
2F
1D
0A
3A
1D
0E
1D
D3
06
DA
07
20
2A
1D
E5
FF
07
BD
3E
FD
21
F7
F4
FD
FA
2D
0E
D7
21
E4
07
F4
09
DF
32
26
22
C3
0C
E1
15
35
14
EF
D3
06
09
D7
14
0B
F3
04
F2
1F
28
EC
02
1B
1A
DE
21
F2
E3
22
FD
24
CB
29
DB
FA
FE
16
F4
DD
21
3B
E3
17
13
F4
05
40
31
25
16
06
1C
FC
04
F4
EF
FB
D5
D3
07
FB
E2
1F
04
D5
FA
16
CE
14
FD
10
ED
FC
25
FE
11
FD
FC
13
F7
2D
F5
E7
0F
31
D1
BE
09
FB
1F
DE
0D
12
DB
27
55
1C
FB
E6
15
DA
F8
26
47
F3
0D
18
11
03
20
E3
E6
1D
E9
B5
ED
FE
1A
11
46
0D
FA
35
E5
F7
15
03
DD
F9
4D
37
2A
C1
E9
EC
05
E9
EE
F0
F4
AD
B0
E6
CF
FB
06
D2
02
03
ED
09
DD
07
D7
04
F0
C6
17
ED
0B
24
FE
D4
0C
B8
0B
1D
EE
CF
F6
14
05
FC
37
27
39
1D
13
28
17
0D
1E
1D
C8
2F
03
2B
24
05
06
3E
1F
1B
08
F9
D9
0F
F5
F7
F1
1F
04
0E
12
3D
1D
46
03
1C
E2
04
14
CC
C2
EE
F9
D1
0E
46
F9
C5
2B
DA
F9
03
F6
B8
FF
FA
FF
03
DA
E1
08
F1
2D
EA
01
45
04
F1
3D
07
17
FB
1E
F7
23
FD
4B
FD
F5
E1
F3
01
06
EF
0D
66
D5
DB
F8
E4
10
F3
F7
1B
D8
C8
5A
E5
1C
2C
01
34
0F
EA
09
CE
22
11
B1
FB
17
EB
F6
C3
E5
01
F6
3C
1C
16
25
2D
F8
01
C7
FC
DA
EA
15
FB
14
18
00
07
C8
B3
DC
FA
E9
D5
2E
20
0E
FC
37
D0
29
28
18
FC
00
22
15
D7
F2
50
F3
F5
07
0E
06
D6
E1
01
F0
C7
E6
0F
E5
BE
F1
E0
17
06
19
3B
2A
21
04
EE
2C
1C
FD
F5
0D
1A
16
15
06
09
BC
D7
03
DC
CE
C0
2B
E3
07
0D
DE
07
F7
24
CE
37
07
09
D2
22
15
2C
EB
00
0B
D7
F1
01
D2
DF
AF
EC
C6
07
ED
04
FB
8B
0F
0E
35
EE
E6
07
1C
1A
17
02
19
3F
14
21
F8
E9
D9
DA
F8
BF
9D
01
DE
10
FF
10
E3
EE
ED
F5
17
03
02
21
EB
0A
2B
E7
14
EE
22
F5
FA
CF
A7
DB
DA
CC
DB
B9
ED
EF
27
01
15
AE
01
0D
E8
EA
EF
4D
EC
19
39
24
53
08
ED
DC
D4
D4
0B
D3
B4
BC
17
04
2D
0F
EC
0F
E5
17
D4
2C
12
14
15
0C
08
30
01
17
F7
07
EB
01
0E
CF
BC
DE
BA
ED
E9
F2
14
0B
FC
CB
F6
DB
DC
B3
1F
EF
0D
1A
EA
53
2B
26
F3
B0
06
AA
C1
E6
D2
E3
19
2B
F2
23
02
CE
D9
E1
FB
07
E0
0F
DE
FF
09
11
12
FC
FC
24
EB
EF
D6
EB
E0
E0
04
11
F4
E8
DF
EF
E8
14
F6
F6
F0
0D
FE
E4
07
F8
C9
C3
14
C7
22
DF
EA
AF
E3
EA
D6
10
FB
D0
F1
0B
13
26
25
C5
FC
CA
F2
FE
D8
F8
EC
D9
BB
F9
03
E5
DF
E5
D1
B1
C3
0D
FA
DB
0E
0B
14
2A
42
F4
09
2E
47
FC
0F
ED
1E
EA
D1
B1
B5
CF
DC
D3
E1
AC
B3
B6
DE
C0
B6
F0
15
12
FF
EB
CA
21
13
DA
0A
E5
DB
D0
FA
E8
CA
BF
DA
B8
A0
10
E0
C4
CE
C3
C9
F4
FA
2A
1A
21
E1
D1
30
F9
02
E8
27
D0
EC
FA
15
F8
C1
8E
80
E8
ED
01
DC
ED
E6
EC
D8
18
EC
15
CD
1A
4C
10
F5
29
33
15
D7
FC
EC
CC
FF
FA
AE
0F
D0
1F
23
FB
E0
EC
FC
1D
17
E9
F7
09
0B
23
1F
F1
F4
09
EB
28
54
AE
1F
2C
B9
07
C5
CF
E4
F8
4E
FF
BD
2E
F2
18
2E
17
0E
F4
09
D7
F8
04
E1
E9
0C
00
E8
F1
F1
EB
F3
ED
06
F8
D9
29
09
DC
25
10
E4
0E
22
F2
0C
E5
08
02
FC
0A
DB
00
19
1C
03
EC
E9
2A
C0
EF
F7
F1
11
33
D5
1E
07
FF
24
08
F1
1E
EC
11
07
36
1A
F8
D3
2A
F6
E0
EC
08
F8
1B
CC
E0
D4
0F
23
0C
30
22
46
25
29
1B
FE
21
E0
F8
2E
FD
10
FD
26
00
E3
15
26
EE
FC
BF
F0
FB
D2
E4
DF
D5
F8
F2
1E
12
FE
3B
E8
4D
0F
CD
07
42
10
12
39
DC
DD
C1
12
17
00
FA
2A
FA
34
18
14
0E
46
C3
FD
FB
2D
FA
14
0F
F7
31
C7
15
F6
26
02
20
2B
C8
DB
0D
DB
2A
FF
F2
02
F2
3C
3F
11
46
F6
1A
3B
E7
FD
EF
F0
0D
1A
30
FF
F1
FA
E3
EF
F2
D3
17
ED
2C
E8
0C
19
33
13
C0
09
51
E3
DF
E6
FF
28
07
3B
0C
2B
DA
2E
FC
FF
EF
0F
32
DB
8F
26
E5
D8
F3
FB
F1
DA
EE
06
18
04
11
DA
F8
EF
03
10
F5
E9
EE
D1
3A
2D
CB
ED
2C
D2
03
F3
0E
C8
30
01
D5
D5
B6
F4
2E
2C
FB
3B
2A
11
2D
E7
1E
0C
09
FD
1F
ED
FD
24
C6
DD
DF
B6
FF
D9
DE
E5
A7
E0
F7
1B
FB
DF
03
E5
49
38
0D
31
07
16
20
0E
28
10
1B
18
D8
DA
51
01
DE
E6
D2
E7
F0
DE
1F
0C
0F
40
04
24
00
52
6C
34
1E
3A
22
27
23
ED
16
1E
0B
FF
FA
E9
27
EF
FE
EF
F7
C4
06
EC
52
15
29
5C
45
4C
0A
1B
FD
0D
DB
1A
37
21
2D
0C
F0
E2
FB
F0
FE
04
F5
FA
EB
08
1A
F8
F9
25
2D
0C
3C
10
45
2E
ED
FB
15
3A
ED
46
2A
F5
BC
D4
04
C3
E1
14
27
F1
EC
CE
EE
04
FF
27
10
2C
2A
40
09
0E
0C
2C
36
18
29
11
0D
DC
F7
0E
05
1A
F5
EB
F4
F3
12
AC
1D
C4
DD
05
21
3A
FB
0E
3D
0C
24
25
1F
F0
1D
2F
0C
1C
F7
CE
D0
D0
B9
EF
F7
F8
E4
D6
12
17
27
24
3C
28
3B
FE
E5
FC
2C
0C
4F
4F
F4
0C
CD
19
FC
E9
D2
1A
ED
20
C5
0D
E5
C0
EF
D3
FF
C2
00
55
43
09
02
26
17
F1
4E
DC
18
10
0F
03
EB
05
FC
29
C3
0E
F8
D0
F2
F3
D3
D6
08
1E
12
17
43
1A
28
34
2D
04
25
01
05
AD
D1
02
EC
EB
FB
17
CA
CF
BB
1B
D7
DB
F0
1C
11
07
21
F6
F5
0E
1A
F9
FB
FF
F7
B9
F3
FF
55
34
E9
DA
19
EB
F7
D7
F7
FF
0E
DC
EB
C4
C8
23
FB
10
19
E8
F1
13
18
F7
CA
E6
13
CE
02
1B
F8
F1
CB
F2
24
CC
FB
1B
04
16
2F
1C
ED
EE
2A
33
04
19
0F
FD
CA
BB
C8
CF
D6
DE
26
13
1D
03
10
BA
02
F0
01
E5
00
16
CA
0E
EC
DA
ED
1E
09
2F
EC
12
DC
D7
E0
D6
F5
FD
FC
1C
D8
EF
DE
49
C3
03
F0
23
DF
F6
33
03
4E
01
FB
2A
12
37
FD
E7
03
D8
E4
FF
BD
E8
C1
E1
F1
04
ED
E5
21
00
1B
FA
0C
F3
00
DD
F1
15
13
12
02
07
ED
11
D3
CA
B8
E9
E8
D3
DC
E1
F6
B2
0E
F5
EB
E8
09
F9
12
EC
0F
C8
DC
FF
EB
28
2A
94
19
08
EB
D5
04
E7
2D
14
E8
10
EC
0B
B4
2C
1B
D9
D8
FA
C0
F0
F7
ED
1A
1F
FC
32
25
03
20
1B
0F
40
09
F8
09
E0
0C
FE
FD
E5
F4
C6
DD
01
E0
E9
B7
18
04
0C
02
17
74
08
02
00
11
F3
0F
EC
0A
F4
F6
FA
07
D4
BE
1B
00
BD
00
E9
03
FC
EE
E4
ED
F3
0E
2F
D1
48
23
2B
1A
CA
F8
EC
CC
E4
04
16
DF
1F
C0
93
E1
D2
E1
19
35
1F
F7
E3
00
12
F7
24
2D
FB
26
1B
22
04
F1
0A
1F
18
D6
08
01
E0
DD
04
DD
B2
F4
00
E4
F7
F5
CD
E8
F9
F6
11
0E
54
07
38
21
F5
D7
0A
DD
EB
09
0C
ED
28
D5
E6
0E
CB
16
D9
F5
E5
04
0F
0B
08
EF
3E
F7
1C
5D
00
22
B8
F0
E6
41
FB
19
F2
19
E9
12
0E
37
E4
06
CF
C9
16
38
D3
F7
28
0A
3D
2B
2A
32
02
EF
F2
EA
13
1D
09
DB
01
0B
F6
10
D4
F1
C8
E3
21
20
19
D6
F9
42
EF
FB
00
ED
25
33
5D
FD
0A
E6
2A
12
E0
43
E1
C3
E9
DA
FA
E7
E1
FD
0D
1F
D2
FD
17
20
D4
FC
4E
49
4A
13
2D
02
1E
FE
13
C1
20
0F
F3
12
08
EA
15
FA
F2
E1
98
DA
38
0C
E7
FD
E6
2A
02
03
24
4B
28
2D
4E
15
0A
EB
0C
F8
00
FD
D2
D0
08
B2
FA
F1
F5
3C
9F
D3
1C
CF
0D
1D
15
FE
0D
28
19
2F
27
F9
3E
E7
05
DF
0D
F1
F9
EA
F1
FC
FA
D8
FA
00
66
22
D9
F4
15
FA
1C
36
FF
F5
0E
A1
E3
E1
16
BB
E7
20
D4
18
0D
C3
20
18
2D
E5
26
10
F3
4F
FB
0D
0F
22
01
E1
DA
11
FD
3F
E7
FF
BB
B6
DD
0B
01
1B
14
0B
FD
3B
53
FB
1F
38
0B
19
E7
03
15
09
36
F4
E6
EC
03
D7
C8
9C
B6
E8
C5
08
C4
1D
02
10
30
F1
F4
40
1C
ED
F3
CA
15
1E
FA
01
FE
09
00
F1
EE
F5
E8
BE
B7
03
F5
C5
E8
10
14
0F
F9
44
21
FB
F4
FF
11
01
11
00
25
E8
EC
0A
09
22
00
E0
D6
C6
F4
0D
F5
15
E8
E5
F6
C6
10
26
29
40
FF
0D
F2
25
20
EE
FA
FC
20
EF
D2
D4
BF
F2
B9
14
D5
00
1C
E3
FC
0C
E7
12
09
E8
10
F9
4B
FA
EC
F5
12
2E
07
FC
14
0C
FC
E0
CC
D8
AA
D4
BE
07
DB
F7
0F
F2
FD
F0
F1
0D
21
EC
EC
FC
2C
E9
F1
E8
16
18
F6
FD
16
E7
DE
EB
C2
E1
AD
0F
32
5C
FF
E6
2A
05
2E
28
00
1E
EA
F9
F8
B7
04
0A
E1
21
0C
32
36
04
F8
D9
C8
D4
E6
FB
3A
F8
16
08
3A
FC
17
5F
09
F2
F3
01
11
F9
F2
FB
EC
1D
DE
3E
D3
22
D7
DB
AB
11
05
00
02
00
F8
1C
16
F3
25
37
D2
00
F6
1D
03
D7
01
4F
14
3E
F4
59
D8
0F
E8
D0
E4
02
12
17
EA
0C
36
0C
08
17
F2
FA
23
BD
FC
D6
20
1B
31
18
CA
1A
26
D4
08
08
C1
9F
DA
10
C0
19
2F
12
DA
39
36
EC
11
08
16
05
E7
D5
06
03
E4
13
F0
ED
09
2A
F7
C2
EA
B6
D1
E5
F9
1B
F3
02
E2
CA
26
4C
19
34
EB
EF
E9
FE
F1
E8
15
18
19
22
21
F2
EC
1D
BD
C1
CA
E5
E8
DF
15
08
03
0A
E2
1A
03
E1
EE
ED
DA
E3
EA
EC
EE
16
05
12
2E
33
05
46
D8
EC
F0
FC
F0
D4
10
1C
EA
C5
FE
03
0F
21
EF
FB
F4
F8
E2
E1
D8
BA
F9
16
FF
F4
1A
E9
16
F1
E9
F4
F9
F2
EB
14
20
EF
FB
F8
4B
12
F0
DF
CD
00
03
07
13
17
1E
F4
C0
14
0F
E1
F7
14
E2
DA
25
06
F6
FB
F1
37
2E
30
15
37
EA
0D
FF
0B
22
2B
C8
E5
BB
E5
DF
1F
EB
29
FE
F8
B6
14
D9
BA
EC
11
0A
E4
DF
13
EF
38
0B
33
D8
E9
DA
F6
2A
4B
F8
F5
DE
E6
04
F5
D8
E5
07
C4
15
FF
DC
05
29
02
24
0F
32
19
1C
DA
D6
F1
F7
03
ED
0B
DF
05
19
E5
F4
BD
F4
D2
DD
D3
F8
DA
18
09
EA
18
D9
2C
1C
0F
09
05
CA
F5
0C
0D
26
F4
07
D4
E9
DE
18
BB
FE
14
BF
B8
0E
B5
2F
CC
0D
EA
DE
EC
F9
11
E1
08
FC
34
0E
E9
EA
F7
DE
B3
E2
E0
D0
1D
D0
E4
D5
17
CE
EA
39
0D
F0
F3
23
21
FB
1C
E9
2D
DE
DD
04
00
06
DF
01
DD
FA
0D
20
D4
EF
1F
FF
FE
E0
1D
E7
32
10
07
32
E4
37
FB
F7
E1
C8
11
E6
EC
EF
09
F1
D5
06
1A
1D
F0
07
D3
08
0D
EB
01
D8
DC
05
FD
D0
1D
DE
39
18
FC
EA
00
EB
DB
C9
0B
C4
25
20
C9
18
3C
1B
2F
08
07
1A
E0
02
23
01
FB
FC
13
E0
0F
3E
18
24
1C
02
1B
06
D9
F7
E2
FF
F0
F4
01
F4
22
E2
E4
F7
E0
16
D5
EB
F7
16
F6
FE
23
09
1F
11
18
12
B9
E5
F3
01
15
01
1A
36
07
3D
FA
E8
EB
E3
FA
04
DA
FB
F9
1A
18
E8
0D
42
23
CF
F6
DD
E1
F4
15
E5
E0
0B
E6
08
DC
2F
FF
0D
22
E3
08
1F
F8
23
E6
04
E9
FF
2F
0C
D8
D1
02
59
C9
4C
C9
C2
F0
00
F9
01
FE
11
0E
FD
17
E9
1F
0E
27
F7
0A
2D
DB
14
E4
E6
C3
DD
F7
0D
20
E6
E5
F7
DF
D5
16
1B
00
36
DC
0A
14
1A
F9
02
23
19
D4
0F
D6
18
1A
F5
13
20
09
1B
09
EE
0A
FA
D8
12
EE
08
E6
F1
0C
FF
FA
E5
06
EF
3A
1C
09
12
ED
32
FD
2C
04
10
0F
0F
36
FE
04
3D
F9
F9
01
0B
E8
EB
31
43
06
26
0A
F6
F8
08
DE
22
1D
E0
02
38
F5
FB
1A
FC
11
E4
18
EA
DB
E6
2B
03
0F
1F
F6
11
0B
DA
1F
09
11
35
00
16
D8
08
EB
15
40
13
F2
CE
1A
FD
E2
FB
39
41
F1
16
1E
1C
36
19
E2
F6
02
C8
1C
02
35
F1
25
26
DF
0F
18
23
44
D6
FA
47
2A
F4
FD
0F
F8
44
EB
09
EB
26
14
E8
E7
1C
1F
FA
EC
07
0E
F5
EC
FA
DB
EA
03
D8
0F
FC
47
E5
CB
FC
1A
14
EC
EB
19
FA
1B
1C
17
F7
E4
0C
ED
18
2F
C3
EA
04
DB
19
12
16
0D
E4
E7
00
F8
E0
29
B2
0C
0C
CC
0F
16
E5
FB
1A
26
D1
25
DF
DD
05
D5
02
1E
15
FC
F8
F7
0F
2A
07
05
0C
33
50
15
2A
0E
DF
E3
12
1F
11
CC
F9
F9
24
E2
0A
EC
16
07
EB
08
05
F6
EE
EB
22
E8
17
DB
F4
EA
E6
2E
D5
25
17
4B
E6
3A
FF
11
C1
29
35
11
1D
45
11
17
EE
02
FC
FD
E8
35
EE
FE
1D
27
09
0F
14
0E
14
0E
DF
DD
1B
FC
46
2D
20
2E
08
08
1E
07
E2
F7
DE
1C
0F
2A
FF
FF
1A
EC
F6
0F
F8
F2
36
09
0F
0F
36
0C
FA
18
FC
F5
E6
2C
F6
07
F8
24
E6
27
11
C8
17
2D
0C
FE
F8
27
F8
03
0A
FF
41
FA
04
F0
0E
F8
25
C8
05
EF
F0
ED
0A
22
2E
F2
27
EC
FA
E7
EA
24
F1
13
E7
1E
C0
38
3A
CE
FD
C7
28
1C
E8
09
14
23
FF
09
CF
E4
38
0D
0D
E8
B4
EC
FE
FE
35
EE
14
FF
09
21
37
0A
CB
C8
39
FB
D8
12
16
18
03
F8
FE
1E
1C
08
43
2F
FB
F8
20
F4
33
07
17
EE
24
DF
23
04
F2
2A
E3
A7
0E
07
F6
FD
FB
21
E4
F8
F0
0B
1E
21
14
E5
E5
1C
2A
E6
10
20
15
E7
E4
F7
01
51
12
06
05
E7
F7
FA
24
41
FF
03
F8
0C
E7
E2
19
00
E6
2B
E4
E7
D6
36
23
F6
0B
E4
11
03
F8
0C
F9
11
F6
3C
EA
1E
10
1B
D4
07
F0
1D
0A
0A
FA
F4
05
F4
18
40
E8
FD
FC
F6
F2
02
09
CD
FA
0D
1B
1B
DB
29
21
1A
FD
29
F6
2B
E5
18
F7
EE
E0
F1
F2
DA
23
1B
E9
CE
D0
14
23
E1
0A
EA
0C
C3
E8
21
28
04
F6
EA
1A
ED
18
ED
12
C1
04
F7
22
15
1A
30
F4
0B
11
D7
EF
1F
CE
27
24
F0
EF
02
FB
21
11
E6
F9
F4
15
15
F1
FA
10
FD
ED
0C
EB
16
2E
FE
0E
0B
03
D4
1C
05
1B
FF
1B
27
ED
28
35
09
CD
DC
00
19
CC
EC
1B
DE
1C
F8
1B
0E
38
F3
24
0D
08
E4
E6
25
11
12
E1
F3
15
D2
E1
F1
F7
EF
0F
E6
FA
04
34
2D
F1
36
24
F4
1C
D9
F9
3A
34
00
D2
1B
F3
F6
EB
13
FF
2B
1C
3B
3F
E3
13
2B
3D
E3
C7
0D
0C
1B
04
10
19
06
0F
DB
DE
DA
F4
41
3A
1A
1A
3C
01
D6
F1
F1
17
F3
F2
F3
EC
2A
20
F0
D5
D9
FF
DF
E9
DA
13
E6
D3
F5
E1
21
D0
FF
ED
EF
2B
E2
F0
25
09
DD
2F
BE
3F
D4
2A
3F
10
1B
D0
EE
F4
29
E6
DC
C6
25
08
C3
DC
E9
F2
08
D4
FB
E7
11
F0
F3
00
F1
01
37
38
F2
EE
26
35
11
0B
F0
03
1B
2D
E5
1D
4F
11
34
FF
1D
C8
F9
F1
1E
DB
08
29
0D
11
46
E1
35
33
2C
EE
03
19
1D
F3
24
DF
DC
2C
D0
23
C6
0F
42
CD
C5
E2
B5
DD
04
07
3A
4B
0C
23
15
6A
EB
11
1A
E9
00
03
EF
13
F5
E4
B0
00
EE
01
FD
0B
F7
D5
E4
F7
EE
F0
C1
14
13
2A
31
10
67
02
E2
E1
EE
03
EC
02
DD
15
06
1E
DD
01
DA
B1
CB
F9
EF
FD
F6
23
2A
08
24
14
EE
DE
21
26
3D
00
C8
11
AA
11
23
F5
0E
05
FF
28
08
E8
0B
C9
F1
C3
F8
30
17
22
69
24
49
45
ED
02
2E
F7
01
F1
25
E9
EC
22
15
E2
48
0E
1F
14
C7
E6
BA
C7
CF
DC
27
09
FF
4E
04
3A
50
1E
C8
E5
CA
10
E6
F9
EF
07
24
EC
F6
3C
F5
03
D9
D5
D7
FA
16
E4
E0
04
0F
03
3F
52
06
08
09
30
02
13
0F
11
1D
2A
FF
F6
D6
1E
FA
17
8E
08
A7
CE
08
08
3B
ED
E2
4F
08
15
FF
F2
1D
FD
3E
B6
05
A3
38
DD
DE
F7
03
C8
10
03
BD
C4
F2
AF
E5
0B
C6
24
DB
47
17
4D
4F
14
DD
1E
19
2C
15
4B
1D
1F
0D
13
14
17
30
FD
D1
1B
D8
FC
EF
08
EE
EF
E9
17
30
2B
1E
05
24
F8
F3
0C
41
02
15
D1
17
F5
CA
15
1C
D6
D2
FC
C4
07
C4
CC
EB
0D
F7
C9
1E
14
27
E3
16
3C
12
12
28
05
2C
EF
F2
0C
C2
09
2D
20
D6
C5
13
2B
CC
F5
F2
ED
1A
04
E2
46
2F
16
2A
36
18
D6
0D
0B
31
CC
E7
0C
2F
FF
E4
DE
10
E3
EC
C2
33
F9
BC
FC
15
21
00
11
E7
3A
EE
1F
2A
03
29
14
50
34
06
DB
E7
28
07
22
D3
F7
46
EB
ED
C1
F2
E2
E6
FB
13
1A
2B
EA
C9
E9
26
FF
11
20
FE
F3
00
0D
27
16
EF
E6
15
F6
B7
D5
EA
D6
FF
C1
26
EC
01
07
18
57
05
1D
0D
36
13
EF
18
DC
03
F7
D3
1A
24
F3
E3
0B
C1
03
E3
F1
EC
CF
FF
0A
FC
ED
F6
2D
1D
4B
F8
EB
0F
F5
CC
2F
12
15
01
20
3B
37
02
E0
F2
EF
0A
E7
D9
F6
E7
02
F9
0D
14
30
E7
06
FD
3D
0E
FB
03
F4
21
1E
E8
E7
1B
13
E6
D7
F9
C5
C5
A8
E0
C4
20
3E
C6
FF
12
16
F9
F6
11
2E
1D
FD
11
BC
1E
F1
20
2B
2D
0D
31
D0
E0
F8
20
D8
F8
BE
F8
DC
16
2F
FE
DA
14
02
F1
F5
11
0B
21
15
34
21
30
1E
16
F3
27
19
FF
20
D8
01
BB
F2
D2
DE
DF
FB
E9
FA
D9
F4
F2
EE
42
04
1F
F5
FA
FF
F5
1E
51
30
FF
E7
06
E3
E2
EC
2E
CA
ED
D8
FB
C0
E4
09
01
F9
3E
DF
1B
FB
1F
DC
F7
4B
DB
F7
09
6B
DA
FA
B6
F6
FE
FB
07
D3
00
03
E9
CE
FF
EE
17
A6
0C
FF
0B
2A
FF
E7
EC
14
F7
26
0B
18
D3
14
11
CC
F3
F7
F9
B3
E6
E9
F0
EE
E3
E5
EC
E7
11
DD
FB
FC
E4
D8
12
C9
FD
33
F2
12
07
E4
F0
E4
D0
00
D4
C3
F0
BD
BB
03
14
17
CE
1B
D3
FC
B2
D9
28
FE
DA
16
A0
D3
FE
27
0F
0E
F4
DF
B4
FF
C7
DD
CD
FE
E2
C7
E8
DD
F0
F9
EC
15
3A
F6
F7
12
DD
F1
23
23
1A
FE
18
D7
13
F6
12
BE
CC
FE
04
D8
BD
E7
04
06
24
E1
FF
E8
FE
F5
D0
F0
EC
DA
0C
0B
E6
68
3E
35
19
30
07
F9
FE
0B
CC
03
02
19
2E
05
20
FE
FC
FE
12
3E
14
27
0C
07
0D
27
CE
77
08
1A
DB
E0
DC
E9
1D
F2
17
0D
15
28
36
1B
5B
26
D1
04
FB
1C
F4
0C
10
D4
0E
26
02
F7
E7
23
F3
02
D1
14
E2
00
DC
00
FA
F6
FA
1C
2B
3A
C0
0E
E1
E7
E7
F1
DE
01
ED
3B
EF
16
FF
D0
CA
F6
FA
04
1E
1F
F7
08
24
12
5F
49
DF
15
DC
CC
D1
E7
F4
AD
EF
A7
E9
D3
0F
C8
09
CB
1E
F8
ED
15
F7
E8
17
02
61
08
71
FF
E5
9F
E5
C2
C1
D8
F6
DD
C8
AF
EE
F7
D8
23
1E
0C
22
17
0B
10
11
2B
F4
18
14
28
60
0D
1B
86
A9
B8
A7
BD
0B
FA
FD
F6
12
0C
F9
07
08
E1
EE
2A
15
16
38
30
E8
4D
2C
3D
35
38
19
EF
FD
28
CB
E2
C1
D6
04
CA
FA
ED
F3
FE
01
03
15
1C
D5
E8
D8
0E
14
6D
36
6B
16
00
F6
F4
B3
13
C6
D3
F3
CF
E0
DB
0C
08
13
F5
01
06
F7
38
FC
00
E7
50
0A
34
53
33
33
2F
CE
0F
E3
D7
DA
F5
C4
ED
F8
FE
1E
F9
F8
06
E5
0D
F1
D0
54
07
0F
15
FD
31
27
35
FC
28
10
11
E8
07
B9
C9
D5
CB
F4
E5
01
D7
4A
3D
17
04
FA
02
1F
24
35
E8
07
5F
38
46
FC
EF
0A
CF
0A
11
F1
EC
E2
CD
05
E7
E2
EE
E7
2B
14
CA
3C
40
EE
1C
EC
14
3D
4C
66
6C
3C
20
01
17
F5
AF
F7
C9
C7
B9
D7
F6
0B
F5
3D
D3
09
1B
E2
01
0C
CF
0F
1E
0C
24
1B
4C
F2
FF
EC
01
16
F2
E1
C3
D3
E9
14
06
EA
09
CC
EF
E5
D7
2A
F2
05
1B
25
19
1C
38
54
35
33
29
10
00
DB
E7
E9
DC
FA
D8
F6
CA
E0
DB
FE
29
13
58
ED
FD
FC
03
0C
23
23
67
31
3E
FD
0A
15
CF
09
CB
D8
C4
D9
08
F5
D9
22
FB
58
19
F1
07
F9
0D
2C
D1
EC
21
FF
47
2F
19
31
01
F6
C9
FB
23
F6
BF
04
E0
1F
F0
FD
E9
16
1B
1E
0F
F2
1C
12
03
E8
FF
54
32
40
3B
08
17
27
3D
1E
F8
10
F4
F4
C4
13
1A
0E
12
06
06
16
03
27
0B
1B
07
0E
D9
E4
2A
D2
50
0C
0A
C6
14
3A
F3
CB
D5
FA
E7
EE
D4
F1
02
17
23
D6
02
2B
47
DF
E9
D6
02
0E
2E
21
3D
3E
11
B6
02
CA
E5
EE
A1
EC
E4
31
EF
FE
0C
09
18
0B
69
16
3B
16
38
18
14
21
27
24
2C
0C
07
E7
20
0D
39
CD
02
C2
FE
E0
DF
14
34
2B
05
DB
DB
15
0C
EC
16
FB
1D
E0
28
F6
42
F8
20
FE
E0
EE
D1
F0
DF
19
E9
F7
C4
D3
0B
43
F6
03
FF
01
06
19
11
E8
02
1D
12
15
2F
14
35
1D
EE
5E
CA
F5
F8
32
1D
D2
1E
93
ED
05
33
1B
28
EC
43
15
3F
19
3C
EA
57
3F
23
32
03
19
1A
0A
F5
F6
D6
C7
C7
ED
FF
9D
14
FB
D3
9D
E7
01
11
3C
21
1A
04
1B
29
17
DE
19
13
E0
FA
CA
EA
2E
01
DF
F1
F9
B4
EF
CF
EC
06
2F
42
0E
26
0C
1D
FF
10
2E
F9
3C
EB
22
FB
67
1C
06
FC
E3
C3
12
D3
E4
CB
D0
FE
1A
2D
32
05
08
25
F2
3E
25
F0
0B
18
18
17
4E
C1
5A
EB
FE
12
07
13
0B
B2
00
E3
8D
AE
BB
0A
10
F8
3A
17
0A
FE
47
2F
F7
FC
42
04
FD
FA
11
18
19
36
12
60
01
07
DE
E5
D3
08
D5
2A
37
11
2F
DE
12
3E
36
12
16
0B
14
EB
3B
07
BC
00
07
F7
F7
05
00
E7
E4
EE
AF
B0
2E
05
06
04
FE
0A
29
EF
05
22
57
20
04
E9
20
0E
23
25
F1
13
02
CE
05
CA
EB
DD
1A
E7
D3
17
0B
FE
08
D5
E3
FE
2E
0D
10
00
07
E7
D1
13
DD
13
1D
1F
04
E7
C9
23
23
F9
06
E9
02
24
DD
FD
15
F0
FA
D4
12
EA
FD
0F
25
EF
E1
08
DE
13
EE
38
01
0C
DA
F1
EE
D6
19
DB
08
57
07
E8
D7
22
ED
FC
11
00
07
1D
FC
22
FD
29
1E
10
38
30
16
34
F5
22
19
27
F6
FF
24
38
DF
F0
37
E3
36
32
16
13
17
50
D9
2C
D8
06
18
5D
A6
1D
39
1E
2F
0F
34
10
0B
2A
36
13
F7
04
02
17
F6
EF
03
FD
0F
09
E8
05
EE
F2
19
26
26
24
FE
1D
D9
04
29
02
0F
41
05
C5
05
D7
EE
12
02
FE
22
08
24
F7
10
0E
E1
D5
06
D8
EF
DF
3A
F1
0C
13
D8
EF
21
DC
05
E9
E8
09
EA
08
24
B7
0E
16
1D
CA
1E
15
2D
25
DA
06
01
FE
F4
C9
1E
09
02
19
EC
01
36
02
02
06
37
F3
2A
29
27
0E
EC
05
E9
07
00
DE
D2
BF
2F
30
0D
05
D9
16
42
3B
38
30
CD
2B
CC
F0
1D
09
E7
09
EF
0D
03
0B
23
1D
04
EF
11
09
2F
F6
05
0B
E7
EC
C3
FF
26
1B
2F
00
EC
EE
03
25
20
00
EB
01
D6
FA
D6
25
16
01
FA
EE
DD
2C
2F
EE
06
17
EB
12
ED
E9
1B
FA
F6
C9
48
18
BF
38
CB
EE
EE
12
F7
01
00
25
36
DC
0E
F1
00
06
0B
58
0B
1F
2E
05
15
C2
E1
0F
F1
F7
EC
F9
33
26
18
C8
DE
F6
24
0B
38
2A
13
FB
F0
43
F9
F1
FE
34
F0
EE
0F
E7
E9
1B
D0
0C
22
AB
F2
EF
10
C6
25
1C
00
09
EF
26
39
15
D2
1D
E5
E3
09
26
0E
D9
F5
23
1C
1C
19
0D
E1
F8
08
B5
33
23
1E
CB
DE
01
F5
D5
35
EC
F1
0F
E9
3D
22
FF
0D
1B
EB
1E
35
2B
0B
FB
02
DF
05
F1
D7
CC
FA
01
C4
D2
F6
EA
DE
2E
0E
27
43
06
CA
07
32
15
F3
08
1E
32
29
C0
E4
27
DE
10
F2
23
E3
FF
4F
F3
05
01
EE
08
1D
F5
32
00
15
FD
14
EB
D5
03
FF
E3
27
13
33
C3
02
1F
25
25
F5
08
32
24
FB
28
F5
41
F3
16
F6
D9
D0
17
15
25
E7
1B
F0
10
F0
27
16
16
1F
D0
1F
1C
F0
FA
00
FC
DD
1A
DF
40
E0
FD
16
0E
27
E8
08
F6
1F
F3
16
F7
17
44
2D
02
06
05
13
F0
2B
46
F6
CA
D8
FD
34
42
ED
1A
2F
08
E6
D2
07
23
28
D6
2F
3B
F6
1A
B9
E4
07
E4
EA
20
04
D3
D3
12
2A
D2
3B
ED
39
F6
E1
1F
3D
F3
FA
18
ED
2D
22
01
C5
2C
2B
FF
F2
13
E7
C0
DC
FA
E3
FB
2D
23
C6
1C
01
FE
1F
03
C9
C9
F1
28
21
02
CC
18
E0
03
27
14
0A
5B
2F
44
2C
14
22
0F
E9
2A
01
26
EF
F8
1F
12
0B
C7
41
09
CE
45
EF
1B
1A
2B
D0
F7
10
EF
1D
FB
44
EF
0D
3E
0E
EF
E2
DB
DD
07
32
13
08
DD
B6
CD
02
0A
F4
EE
E4
F7
0B
F2
F3
F9
18
EC
2E
2D
20
23
F7
D4
32
13
2A
F9
E4
E7
1B
35
F4
22
38
11
DA
03
FD
13
1D
F9
FF
EF
09
DE
30
1A
18
2C
E8
ED
CF
EC
19
E2
03
F1
13
0F
02
E3
F9
F4
F3
EE
15
34
F7
B9
DD
14
FD
1D
1F
FC
19
01
2A
2D
FC
FA
FC
F3
EA
03
FB
0B
12
E9
1C
0D
1E
E6
BC
10
34
34
D3
E8
E8
16
24
E9
F1
1E
E7
E2
33
17
B1
EA
CD
DA
CD
3B
29
FE
01
21
1B
1E
F3
20
11
38
2D
00
EA
F3
08
1A
0E
12
19
39
E8
E0
C8
03
16
DF
F3
1D
45
07
0B
01
11
28
FF
17
53
05
FE
13
29
1B
08
EA
CB
00
F8
FB
C7
03
DB
19
0E
19
FB
99
11
0A
C2
16
1B
0A
F1
2B
EC
3E
1C
C9
28
D8
F3
AB
EC
1A
17
F7
29
33
04
44
C8
14
16
00
E6
F2
E8
D3
27
DE
E2
D3
CA
1C
E2
F7
E1
17
DF
F7
04
DF
F6
0B
C0
17
24
E8
0C
E6
EA
E4
FA
F5
FE
F3
FB
17
07
07
F2
E4
0F
EA
BD
B6
E7
FF
D5
EA
46
36
2C
27
EC
1B
E5
C7
C0
D7
FC
F3
EB
F8
D6
FD
12
EF
00
01
03
08
FC
E7
D8
CD
EB
E5
D3
48
D4
30
2B
08
F3
0A
D3
07
B4
CB
DB
33
F9
3C
10
F4
EE
F7
02
E4
03
D6
F5
DE
E5
2E
1A
F7
0B
F7
E7
F5
DB
E5
03
20
DC
E0
E3
E8
04
11
D5
1C
EB
17
22
02
E4
F9
DF
83
DA
BE
F3
02
0E
31
20
F7
DD
0A
C8
F3
1B
EE
0C
E5
C1
F1
2D
EC
F5
0A
18
03
A5
E9
ED
21
FA
16
E4
FF
23
2A
D1
CE
0D
04
E6
12
D8
07
DE
03
03
4F
23
EF
ED
35
F0
FB
EF
BF
E6
E1
E8
0A
F9
0E
18
01
1D
2E
16
F9
10
D9
E9
ED
F9
08
08
ED
EA
0B
F6
51
EF
02
0D
0A
F7
FE
F5
FF
F0
00
07
F8
13
05
1B
E5
20
C2
D7
01
F3
FD
E4
1B
DB
0C
E1
DA
33
11
D7
F4
BE
C4
EF
07
01
CF
D7
13
17
07
30
06
E7
1B
DC
EB
22
3C
37
00
CB
0E
08
03
13
0E
EC
F5
CF
FE
E8
F1
FF
1A
F1
0B
FF
30
E0
E5
DC
D9
2B
DE
C1
DF
1F
F2
E3
24
0E
EA
E2
DA
F7
C7
DD
07
E3
E6
C3
EE
1E
29
3F
4C
16
17
ED
BF
11
D4
09
0F
03
23
31
C9
0F
0A
E6
E3
ED
B3
0C
D7
DA
EB
EA
E5
34
03
0F
1A
27
E8
F5
CC
C9
CB
FA
04
23
E4
36
18
DA
3C
11
26
F5
F3
94
1A
FA
D4
08
0E
E2
7F
7E
10
13
F6
14
E5
E2
DC
DD
13
BE
0E
3E
03
02
00
13
DC
00
09
F8
CF
EF
EA
03
C8
21
04
F6
02
FC
D3
DC
FB
F1
BB
1B
CC
0D
F3
02
C4
1B
04
36
07
B1
EF
FC
EC
DA
12
16
F7
50
0B
55
0A
05
0A
F7
DD
CD
22
D0
F4
14
F8
2F
D1
1D
F5
FD
FB
00
DC
F8
AE
F9
1E
ED
30
50
09
30
44
0C
BA
1E
E3
DB
26
F3
01
16
DD
11
07
14
04
37
2B
21
E6
34
27
F1
E9
18
25
12
15
16
12
40
F2
07
14
ED
BA
F0
EA
F5
18
03
0A
EB
1D
28
23
3D
23
03
0F
25
11
25
22
0D
04
1B
E2
E3
15
F5
EC
E6
FF
03
33
EC
21
EB
F0
DD
C5
5E
10
22
04
0C
17
F8
2E
0E
48
11
03
20
0B
EE
E1
EB
CA
09
E2
0D
0B
13
E4
F7
C5
22
FC
F6
2C
1C
00
DC
1A
15
27
3D
F7
0A
07
F0
D9
0B
FC
0E
F0
17
F5
09
18
F3
18
E8
06
26
E9
E7
03
28
E2
25
20
29
E9
0A
FA
FB
F9
CA
F5
2A
24
E4
2C
F9
18
08
FF
09
05
04
13
DF
E7
23
21
0D
16
21
1E
E0
11
CB
EA
E8
F2
C7
F3
E4
F8
F2
C2
EE
FE
20
16
F3
1D
D1
03
DB
E4
3C
FA
C7
39
EE
02
F5
ED
F6
CF
E7
FA
27
EA
00
1C
F5
E2
01
EC
E7
08
0B
F5
04
9E
03
F6
EF
CE
F1
E2
E1
14
BE
03
DC
EF
11
FD
08
EB
0D
F4
E6
11
1C
E1
F9
2B
E0
0C
37
DF
F7
B9
F4
FD
F3
2B
08
E6
4A
F0
21
0A
E7
DC
23
00
DF
09
B7
0B
1B
4F
00
07
18
E9
E0
00
0C
0E
0B
12
02
03
24
4A
15
1F
2F
2A
1B
E1
E9
00
2A
18
FE
FF
05
3A
10
15
E0
E2
FE
FF
35
13
EE
1B
44
D5
FC
02
DE
97
A8
15
EC
19
E5
D7
D0
4D
EF
D6
20
24
E4
D4
2C
B0
0D
0E
13
F3
31
47
5D
F6
1C
E8
DB
08
13
F6
FD
18
0F
05
18
1D
0C
0B
FE
FB
1C
0D
11
B3
F3
03
17
1A
45
1A
5F
F2
3D
27
F1
C4
F2
EF
E8
CE
1B
CF
59
26
0F
15
1E
0A
00
2D
09
E7
34
1C
F2
0D
62
7F
17
0E
08
EF
0A
D8
E0
E6
EA
10
F6
0E
E4
F5
0F
F3
DF
1C
B7
05
F9
ED
45
03
00
2F
51
6F
0C
D7
12
F6
0C
D4
FE
F8
05
2A
BE
35
EA
F1
EA
07
05
F2
C0
C4
0D
A5
C0
00
11
35
18
3B
1F
0B
F2
1F
09
F8
F4
0B
F9
FE
48
08
37
24
0B
EC
E7
8E
D3
FA
F4
31
3D
F9
23
41
30
46
46
03
17
DC
09
09
5C
F3
28
0B
BD
D6
F2
E2
EC
C8
EA
0A
16
D4
BA
16
BE
15
16
38
3F
0A
33
E6
02
17
ED
25
00
0B
0A
11
FD
DC
12
F9
FF
F9
17
DD
00
EB
18
08
DD
1C
C9
56
4D
2B
2D
E4
3C
E2
DA
1D
10
2A
12
14
04
04
D7
DD
0F
D3
18
03
D1
18
07
A2
0A
29
19
04
2C
17
1B
FA
09
20
D2
06
1C
CD
20
26
24
EC
07
F5
A1
20
08
EE
D7
27
07
DB
B9
EA
EB
3E
2E
2C
0D
FD
FC
45
28
07
F2
06
47
1A
1B
13
F8
E3
F8
B9
01
EC
F6
1A
DF
EB
EF
39
26
19
66
57
29
03
1F
1F
FC
37
1C
0B
EA
F6
F5
EE
EB
D8
AE
FE
F6
09
EE
E9
D4
DB
CE
E9
FF
0E
3A
DF
42
1C
30
E6
D7
1E
E9
0A
E3
DC
0F
1C
FC
D1
D9
D5
F9
08
EA
18
F2
16
19
F8
EC
E7
15
4F
1E
10
21
3E
37
D8
0F
2C
F3
04
F5
D2
00
B0
EF
2B
EA
F5
DC
EB
15
D4
37
DE
02
00
B2
00
2D
1B
D3
F7
E7
01
0B
06
0B
39
14
E3
36
B5
E3
BF
D6
D8
F8
1C
FA
F8
35
F3
FF
D4
BE
14
09
0C
24
0B
2A
EB
FD
31
F3
F4
17
1D
DA
3C
B6
E9
00
FA
0C
FF
E4
EB
F9
12
11
F0
CC
D1
EB
EC
0E
D1
08
1A
FA
ED
0B
20
FC
EE
05
C1
E3
E2
11
05
E7
1F
CD
13
1F
0B
D2
D4
C4
AB
26
08
04
DE
18
F4
13
40
13
F8
01
EE
FA
05
F3
20
F1
F3
04
13
EA
FF
1D
FD
01
CA
FD
DC
F9
02
1E
06
F7
06
DB
EE
00
25
DA
DB
13
30
1C
BD
1B
30
B6
E7
1B
0E
06
08
1D
DA
14
D8
15
F8
14
18
F8
D9
ED
DE
C9
E3
CE
E5
D5
F1
EA
1F
D4
12
DF
D2
3E
D4
E5
11
DF
E2
1E
F5
FB
4C
0E
19
29
2B
19
1B
2E
1C
E2
EF
35
25
EE
F8
1A
1C
1B
FE
11
12
00
11
42
F5
E0
CB
E2
DF
06
FD
F5
49
20
39
C7
02
FA
33
07
E3
D7
00
0C
D2
C2
0F
37
FA
E9
06
28
F1
F4
06
EC
1B
3B
F3
ED
DB
D1
36
D4
EE
0B
EC
ED
F9
13
E2
2B
1E
0B
D9
0D
FA
0D
2C
0F
EB
0F
F3
DE
04
0D
01
FA
0C
FF
EC
A7
EE
C4
DA
0F
E7
FC
E1
3A
11
FF
E5
2C
19
47
EF
B7
1D
EB
C9
19
C6
09
08
0E
EE
D0
F9
25
4C
F0
FF
08
DC
30
EE
2D
E2
FC
5D
01
2D
48
E5
F1
FD
DB
0F
FA
05
F1
10
F1
E5
16
C7
E8
CB
C4
F1
4D
C4
C5
F1
0F
F1
00
1D
1A
21
25
F2
F2
01
09
27
E9
BD
E9
CB
EE
0A
C7
E9
ED
E1
12
21
2D
F8
FC
02
29
27
2C
3A
09
0A
FA
2D
DC
0B
E1
DC
DF
16
17
EA
1D
EC
CE
D2
32
DF
F9
D6
F7
FB
20
F3
E2
FE
15
02
0C
E4
01
0F
14
23
F8
FB
0B
F6
3A
ED
0F
E3
F9
00
17
07
FD
15
06
1F
13
D4
25
13
F4
C5
DA
FB
1F
16
EE
0B
07
23
12
10
F8
21
2D
05
FF
05
0F
F8
D0
E6
3F
1A
FE
0D
07
C2
F1
08
07
0F
DA
0D
1B
CF
E2
01
04
33
DD
0B
19
CD
DE
E5
4E
E1
F7
E1
F9
E6
FC
FC
12
F8
F9
41
39
1B
20
DD
0B
CE
D9
FA
BB
0F
2D
E8
BB
06
2A
F7
D0
E1
DD
62
00
19
F8
EA
01
0F
CE
FE
FD
17
3A
03
F7
D1
1B
17
F9
ED
18
EB
1F
C6
D0
19
17
E9
0F
DB
11
0D
20
FF
ED
FF
DD
19
72
ED
1E
28
EE
29
E5
D8
20
42
00
FF
DA
02
2F
E9
C7
31
00
24
F2
EE
F1
31
DD
0A
0E
18
F6
F9
15
E8
FC
F4
16
C7
17
E8
0D
0E
0D
04
FF
F7
01
1F
C5
FD
03
20
DB
50
F5
F1
07
F9
E4
EB
E3
FD
19
0B
25
0B
0B
FD
0B
08
F7
14
14
15
02
FB
EF
05
03
2E
F5
EF
D7
EA
F6
F1
0E
19
2F
3F
FF
1B
25
0B
37
10
10
01
CD
D0
3B
FD
00
09
EE
00
2A
1C
CC
15
FA
02
EA
01
FA
08
EA
F8
13
0F
01
D9
4C
FE
14
0C
57
F9
D8
B4
11
EB
EF
F6
E2
0C
F3
FA
F3
13
1F
20
14
E1
0C
F3
09
49
DC
FE
29
D0
19
EB
F5
1B
F5
C9
15
24
14
FD
F9
28
E0
14
E8
10
43
E9
F5
0B
02
CB
09
37
30
4E
36
72
18
DE
22
F3
F0
03
23
E6
C6
21
41
F9
22
FE
00
03
0A
31
EA
EE
16
1C
08
2D
1E
27
2C
06
05
3D
27
05
1E
F2
ED
1F
19
C1
DE
13
C0
09
F4
F5
F5
FF
FC
D5
F0
35
34
31
FA
25
07
1A
0E
0C
12
D4
F8
0E
F1
FF
0C
EE
EC
FB
E3
D9
C9
CF
FD
15
00
0C
EE
2B
0B
EF
09
E8
26
1B
D1
0D
08
EB
B6
02
16
B7
17
0A
FA
E1
11
E4
E0
4D
B0
CE
19
F0
EA
03
07
1A
CA
F8
1D
05
F7
27
E9
22
EE
00
11
0D
EE
16
13
E8
0F
3D
15
18
01
D3
F5
F5
EA
10
F7
ED
E9
C8
D4
F8
FB
D0
CC
FC
03
F2
D1
F9
07
0E
3B
07
5C
24
E0
C0
23
0E
1D
E7
08
E0
EC
08
CF
F9
EC
E0
15
4C
BC
E0
EB
F0
02
E7
04
CA
08
CB
E1
F5
F9
65
0E
05
F8
C8
DE
1B
EA
F0
F0
F3
FA
E1
CA
D5
12
E2
FC
CE
D4
C0
2A
DC
24
AF
23
09
E0
C8
18
D8
09
16
BC
D7
CA
DF
CD
DF
02
E3
F8
05
0B
0A
B7
02
15
E5
07
BB
17
14
E7
1C
36
FD
D4
07
22
18
F1
A5
F5
A3
F8
C4
F2
F1
34
E3
1A
16
E7
CF
11
CE
28
1C
F5
D8
26
E6
CE
E2
F2
EB
AE
EE
D2
13
F2
F1
F9
E9
D8
09
BE
DC
29
01
EB
0D
00
15
D5
13
B4
EC
26
F4
0F
11
16
EF
DA
A4
C6
02
0B
14
FE
C4
EE
FF
ED
EA
E1
E2
B9
FA
F3
05
01
08
1D
CB
F0
F0
14
E3
F1
D7
02
26
24
CC
E4
F0
07
E3
E0
F5
10
CE
1D
EF
EF
F1
F6
CF
DC
FD
C4
10
F4
C2
2B
02
27
01
97
07
EB
E7
D0
E4
C9
E2
BF
FC
DD
EE
DB
DA
D5
D5
18
13
E0
F7
ED
32
AD
FC
FC
DE
34
09
C0
F9
B9
AA
00
F7
F4
32
D6
04
04
1B
F0
F7
08
F1
17
00
29
C7
E4
D0
0C
0F
3B
21
1F
F4
DB
FC
BF
D8
09
EB
0C
D4
D6
17
3A
38
F1
FF
05
FE
FC
F9
10
FC
E5
F7
0F
1C
F1
04
D2
F4
C3
0F
01
1D
D3
0D
0E
F4
16
E4
22
19
CB
08
30
B9
C4
75
19
D5
F8
E5
CC
BE
F4
1A
DD
FC
FB
D2
0F
D4
D6
2F
F9
3F
E8
D5
EE
F5
23
D1
ED
E9
48
20
12
1A
19
24
10
DF
EE
1E
E3
EE
F1
D2
DA
FF
DC
21
07
32
0D
11
05
15
2A
1D
FF
C8
0F
F1
32
F9
47
07
F3
14
EC
12
FD
E5
33
24
46
FA
11
1A
FA
15
38
15
EB
AF
DA
14
01
21
F3
D6
1F
FA
17
2F
23
E1
11
F0
FB
D1
DF
3F
0B
23
FC
E0
17
F7
FA
E3
0D
06
26
42
E4
0C
01
D7
1F
02
15
D7
D9
31
F9
E5
FD
36
DF
E6
E1
EC
18
3A
BA
F7
02
07
02
1A
C0
F1
26
E7
C7
36
12
EB
44
07
E1
D4
F0
FF
0D
F6
03
C0
CC
DE
D3
F6
07
F3
E1
F3
EB
0D
22
1E
E9
31
0F
08
F3
F5
06
F2
FB
11
10
26
06
31
DA
F9
E9
C3
F5
4A
EB
FA
05
02
EC
E5
22
E8
2F
F4
1C
06
00
06
06
10
E7
F3
E8
DD
20
C5
01
F3
E1
D3
1E
1C
01
D2
16
12
3F
22
CF
DE
E4
F8
2C
24
D6
34
06
DA
00
00
13
FA
DD
25
F0
BB
04
03
17
CB
CE
D6
E2
10
09
0D
C8
17
3E
2F
F6
DD
09
14
F5
04
FC
EB
0C
AA
04
D9
FF
35
21
EC
67
0B
08
E1
FB
00
1E
D4
D8
EE
C8
C6
E9
C3
E2
B1
C8
08
2B
D5
CF
CE
0D
36
C7
E8
E6
08
F0
07
DD
F6
EE
FF
DF
E7
E4
FC
E8
F4
47
0A
09
3E
FD
C1
28
04
17
0A
08
10
E5
F9
00
EE
0A
FB
17
D7
37
16
17
E9
EF
E8
32
E8
EC
E4
F6
CE
0A
FF
D6
EE
0A
D4
C9
13
D8
E2
39
DF
08
11
0A
07
0A
18
1D
1B
17
40
FB
E3
EF
D2
14
0A
F9
FE
29
49
2A
1B
00
29
CC
C0
EE
FD
26
FA
17
03
D6
00
0F
02
30
D9
E9
DA
21
06
1B
E1
FC
DD
1A
2A
DC
FE
25
12
E1
FF
F8
B0
DF
F7
E7
E1
EA
D4
F0
AF
02
DC
27
03
E5
E9
F9
E0
E6
0D
1D
F0
E0
DE
0C
FE
09
13
E5
C3
1F
10
F3
E8
05
F5
C6
D7
E0
EF
11
02
1A
F3
FA
0E
35
1C
04
E8
31
39
0B
22
F7
C9
F7
E3
19
12
CF
DD
15
17
DE
F9
F5
F1
0E
05
D2
D4
01
E2
02
F0
DA
03
01
01
13
CD
CE
20
FF
DC
1C
EE
F9
0D
2D
E9
F0
1F
DC
B8
DA
4D
D6
EE
15
19
DB
08
E7
FB
25
F6
E4
F1
36
E8
D4
C7
D8
FA
D3
0A
07
41
F9
11
0C
0A
CE
1C
C9
01
22
0A
DA
EF
F5
05
C8
36
0F
B8
EF
1A
07
18
EE
14
FB
EB
EA
04
DC
E2
DB
06
FE
0C
11
0D
1B
F2
CA
02
13
DE
04
FF
1B
EC
4E
F3
E6
01
ED
F2
F8
F4
17
09
F5
E1
09
F6
E1
16
44
1C
3D
ED
F5
EA
FC
22
BC
E3
03
0B
19
F9
EA
0B
23
B4
01
F3
0F
0C
17
DC
08
CD
F7
D2
10
F1
EA
0C
E2
DE
FD
40
DF
AF
FF
DE
C8
E9
1D
05
1F
BD
D0
0B
C1
E5
1A
EC
B5
CB
18
11
E5
4D
EE
11
D5
DF
E3
30
15
FC
2F
0C
08
D6
0D
21
FB
F9
2C
E0
26
20
18
FA
0F
F5
CD
0F
DF
0A
1D
E9
06
09
0A
DE
05
F1
FB
0B
2F
F5
31
1F
22
12
F7
06
04
F4
FF
F3
23
06
01
DB
EC
1A
BF
F9
FE
24
2D
F3
18
06
CD
FF
22
08
E6
33
EE
07
12
23
EA
D8
19
EA
FA
F7
F8
E1
FA
09
9D
13
D8
FA
0D
04
11
0C
00
08
E0
03
0E
02
1E
CA
DE
B1
DE
D7
EE
0C
F7
D5
21
0F
1C
DB
F8
ED
F1
37
E9
0E
1D
F8
13
02
18
EC
FD
03
25
02
FD
F2
06
03
E1
D9
BD
FA
E3
19
07
FF
11
F5
EF
DD
C1
17
0B
0D
C7
3B
22
1D
21
2D
E9
11
0B
BA
EF
FA
11
13
01
24
2D
E9
18
04
13
1A
1C
20
F2
00
1A
C9
0F
13
0A
FF
08
0D
12
04
01
D2
F7
14
38
53
FF
12
30
D2
37
18
22
03
0A
06
F6
22
04
FF
EF
EF
09
01
16
12
0D
C3
DF
14
F7
F5
05
EF
39
13
2D
15
EF
22
EC
FD
FD
F1
0D
B1
33
0F
F2
0F
35
20
41
45
11
0D
FB
F6
C7
07
05
F0
09
13
02
F3
F9
12
02
0C
FF
FB
05
2C
36
1F
FF
0B
1C
F6
21
2E
1F
C0
00
01
F2
59
14
05
07
13
26
FE
EB
02
EC
C2
D6
DF
F7
0F
0C
01
1E
04
0C
DF
BD
17
06
3F
C5
58
D4
DC
13
36
19
10
D7
06
00
1E
B6
25
23
FC
25
F9
17
0E
14
F1
00
F5
19
E7
3F
05
15
D2
2C
00
F4
15
FD
01
D3
21
01
F7
FC
E9
25
EC
19
21
00
1B
F4
F4
0E
0A
37
38
22
CF
19
07
19
0B
DD
55
F0
F9
E5
1A
05
FF
0E
00
08
FB
64
FD
22
23
DB
21
CF
DB
06
17
FD
33
08
55
F6
02
08
05
0A
FA
FF
D3
0A
EA
C9
DE
EA
E7
FD
FD
13
04
C8
16
07
ED
04
D4
EA
B6
00
1D
18
34
E9
0B
F2
F8
D4
14
DA
F0
B6
E0
E3
F1
22
F3
34
F8
07
17
1C
19
10
16
08
09
33
55
1B
34
0D
19
13
35
F7
CA
EA
DC
14
E2
02
54
30
F2
1C
03
16
19
E0
FC
E2
EF
3F
17
F8
0B
03
1A
DB
22
B5
0A
DF
E2
CF
F4
DA
FF
05
FF
06
09
10
DF
20
C7
02
F4
45
F3
1B
26
2D
40
1F
05
D0
E4
F6
DE
E6
F5
D4
CD
E6
B5
FB
0E
23
EB
2F
33
30
0E
25
FD
22
2B
13
46
3B
24
37
D5
F0
24
D8
D5
B9
13
28
13
C7
FC
00
F8
0D
19
42
EC
E3
13
E4
07
EC
E6
36
28
5C
1A
EE
18
9A
0A
BD
17
DF
EB
CF
08
D3
01
E8
19
D6
31
EB
C8
2E
04
BD
44
F6
02
18
39
D0
DA
D4
CB
DD
22
D2
28
0B
D5
22
05
09
1B
18
13
15
26
13
1D
17
08
43
F4
1B
F8
34
E1
DA
CB
E6
0D
EB
13
EF
D3
EB
E2
EE
B9
0E
CB
08
E5
FB
19
40
35
F9
0C
E3
28
E2
F3
42
B8
BB
D0
D8
D0
0B
CD
D1
F5
F3
32
EB
20
01
2C
E3
04
3F
DF
2A
F6
FE
0C
07
DC
31
F7
0F
B1
D6
D9
F9
00
16
DA
F7
EB
F7
21
B5
08
D6
FA
15
C8
E1
DA
06
EE
1A
FC
43
04
F9
17
E5
E4
CE
A0
AE
00
B9
D2
CD
05
1B
D8
E7
15
EC
DA
00
10
17
01
06
1F
FE
C3
D0
1F
C6
F7
29
C2
C3
09
CC
FB
EB
FF
E6
0B
E8
0F
DA
0F
04
41
19
EF
E1
24
12
C7
45
01
24
38
21
C7
B8
0C
EF
AF
F7
FF
CE
E7
1A
CA
FA
E3
1C
16
F5
28
2E
C2
D7
07
06
EB
0F
08
C5
D9
EA
DC
CD
DF
CA
C5
B1
0C
BC
EF
0E
F7
EA
F9
E2
E8
DF
D3
10
1D
16
15
EB
07
CA
ED
2B
FA
0A
03
EA
E9
D7
00
AC
05
FE
F9
F7
10
FD
1A
10
F7
26
C8
05
29
48
BE
06
2D
F7
D8
BB
C9
D7
EE
03
EA
D8
DC
F2
EC
A7
EC
F9
ED
DD
13
33
F0
15
F6
EE
CF
FA
E5
F7
00
D9
38
14
39
F3
C7
EB
E6
A5
C6
E8
D0
E1
0C
0A
D4
FF
24
38
05
F2
16
0B
00
0B
F7
E7
DB
10
02
19
0A
1E
04
EE
EB
E6
CF
1A
E3
C5
D4
F2
1A
40
22
36
D7
F4
DE
F1
D5
FE
F3
00
DC
FB
F9
0F
EE
2A
3A
00
C3
F9
F1
0B
DA
FD
F1
10
12
0A
0A
0C
EF
26
FC
06
1E
18
0C
07
05
15
12
08
E6
2F
0E
01
EE
DC
25
00
F3
0A
BA
10
15
12
1C
F2
0E
ED
3D
2E
02
F3
0B
05
08
E0
F8
9E
FB
F0
7F
06
55
E5
CA
06
FC
BD
10
19
0A
21
C9
0B
0E
60
28
40
56
3A
40
24
08
21
D9
B5
D9
BA
FD
EE
DB
0C
D1
17
E8
FB
19
30
D6
1D
F5
DE
01
2E
22
37
21
5B
38
5B
08
A2
3A
26
01
2F
D1
2A
0F
05
ED
03
F8
FB
F7
2A
F3
02
F5
F9
45
2E
34
1C
40
2F
2F
34
EF
11
D9
DA
BB
E6
F7
22
D3
E7
34
FA
BF
F4
19
E6
F6
D2
56
E8
E6
1C
23
63
25
0D
2D
D1
13
3B
F3
01
9E
01
EA
28
E4
DA
2D
D1
17
27
F1
2E
FF
23
04
F3
21
00
2E
36
0D
04
5A
3B
0E
03
F8
EF
0F
FE
F3
EF
C8
EC
0E
45
FB
03
04
EC
3F
39
ED
1D
3C
E9
DC
EA
45
45
27
1C
3E
00
E7
D8
B6
E8
DE
DE
CD
F0
EE
AE
31
24
02
F5
FD
14
E5
0B
11
22
22
F1
26
17
24
08
28
15
24
D3
BF
E2
A5
03
0A
F5
09
24
1F
FC
57
27
F8
F2
01
FB
B8
E9
E1
2C
18
35
FD
4A
EE
24
04
EB
F9
0D
44
E3
F1
CC
F7
11
1B
02
2F
0A
F5
F1
3D
03
05
D4
13
23
DB
1C
F8
17
50
FB
1C
B6
CA
E0
C9
CA
D2
FE
05
04
45
0D
2F
07
E2
02
14
17
1C
0C
14
12
3F
54
F8
37
0A
23
ED
CF
C4
ED
D7
08
E1
F4
1D
FE
14
0D
0E
CE
22
1D
27
27
1E
46
02
27
0B
0B
45
F7
3D
0D
00
B9
FF
FC
C3
DD
BF
C2
02
11
1D
1F
1A
41
F5
EE
0F
00
02
EC
E8
15
09
1E
73
1C
0D
15
DD
05
BE
DB
C0
C2
E5
DC
12
D0
D6
FF
DC
E6
43
04
03
38
10
F5
0B
0E
16
10
1E
65
2F
DA
F4
03
BF
D0
14
D6
C6
09
F8
00
F0
FF
24
24
D8
EF
E1
E7
E2
29
FD
F4
0A
5E
28
41
18
13
E0
FD
E6
CE
B8
C3
BF
DE
00
F6
FB
24
2E
0E
13
ED
0D
FB
15
D0
FE
EC
08
E9
50
49
2A
2C
E1
CE
B2
D6
EC
0C
00
11
F1
FC
D6
E2
FF
F8
1E
30
24
F2
1E
F2
1E
24
42
F7
19
21
25
FD
06
D6
C6
F7
D6
F2
BF
DE
03
F2
EA
E5
14
1E
1E
27
E6
BB
E6
16
10
26
19
18
17
07
68
52
E7
B5
BE
08
C4
17
03
F2
24
05
E5
11
E8
0E
0E
ED
20
43
0B
1B
14
3C
EC
3D
3C
24
14
1E
C3
F4
AD
F0
F2
0D
A7
03
DD
FA
C0
06
FB
F8
F0
17
15
C9
0A
E4
16
E8
40
3B
0F
6C
18
17
16
DD
C9
E0
07
D5
ED
F0
13
F9
F9
09
F5
DD
FC
18
FE
F0
EF
13
38
D5
10
39
16
2B
2F
25
D2
F0
1D
E8
2B
FC
12
EF
DB
AA
2D
00
DD
24
D5
09
D2
FB
0D
E4
E7
2E
41
08
44
1C
34
01
FB
D2
C8
F4
FA
00
F8
C8
14
00
0D
DE
04
1A
F6
F1
F7
17
13
FF
41
16
15
08
46
7F
18
ED
FA
E8
00
01
C8
F8
E0
F0
1C
09
CE
25
CF
EC
B1
18
0E
04
02
DA
1E
62
31
17
25
47
03
1E
B9
E1
06
1E
E4
17
10
F4
0C
0B
CC
DC
36
C4
EB
F1
AF
10
21
07
2B
4F
50
FF
5C
1E
2F
48
F8
EB
2B
C9
F7
09
F4
C9
E8
FF
CA
0D
D7
16
20
A7
F9
F9
2A
1D
22
63
3A
4A
0F
20
FE
1F
31
E4
F8
2C
D1
2C
E0
05
EF
19
03
EB
0E
F1
13
EE
04
F8
13
01
25
4D
3A
12
08
4A
20
04
0D
F0
E3
E1
04
F6
FB
08
EE
08
D6
E2
FA
F6
F4
FE
DD
17
19
E4
4D
01
12
D9
08
D1
28
00
25
15
E7
E8
E4
04
F7
F2
F4
BD
0C
F7
21
12
01
1A
35
22
30
02
3A
E5
E6
CD
2F
D4
2D
06
F7
09
1C
F2
EA
F4
3A
FE
BF
DF
E2
CD
C3
40
5D
35
21
12
F3
3E
0D
E2
ED
16
EC
D2
0C
08
3B
DE
C9
C8
CE
F5
E7
09
00
BA
0F
38
1C
E3
30
41
42
66
26
62
48
F7
18
F6
F2
C0
15
09
EB
DC
31
03
9F
05
FE
F0
36
D7
25
13
F2
F6
0E
41
5B
16
1C
59
43
1C
43
2F
11
E0
0E
1C
D3
E3
D1
DC
CD
C2
14
E2
ED
C8
DB
49
F9
07
4E
3E
59
3B
1D
7B
58
1C
DE
26
26
D4
0F
47
EE
BC
F7
C4
1D
E0
E4
BE
0A
FC
E8
ED
F2
F1
20
0E
27
4C
44
60
58
21
2B
DF
1C
E4
20
EA
07
D2
F5
B1
E7
DF
EB
10
FD
0E
FA
F0
E7
2B
E8
D8
07
FC
0F
34
2B
39
EC
26
EF
C8
FD
15
BB
17
D3
E4
CF
E6
DF
ED
E8
DD
D0
19
1A
07
FA
F7
50
16
6B
DE
4D
3C
0F
FE
43
13
11
02
E7
C7
E7
D5
14
D9
EB
F7
2E
DF
CF
FA
02
36
17
05
E3
EF
E9
30
03
F4
E5
F5
F5
D3
0A
28
E9
D9
E5
E9
E6
CD
0B
CD
C0
06
F3
F6
25
12
F1
23
E8
06
F0
3C
14
13
ED
0B
FA
53
DF
EA
1E
AF
FA
E9
E3
E4
F1
DC
02
E0
01
D0
FE
E1
DD
1E
EC
31
E2
1F
FB
07
E6
0E
FA
1D
F9
D3
D8
0E
DB
E2
92
12
DF
F3
E4
F5
E9
CB
DE
C7
FD
F0
F5
17
05
19
28
1B
15
F2
FB
44
F7
11
0F
B6
1A
C7
D3
15
0E
FA
BD
D3
00
FC
CD
00
BA
DB
95
F0
25
F8
EF
15
E2
F9
1A
F8
DA
03
05
AF
B5
FA
09
AD
EF
D1
D8
EB
06
C2
F9
18
F2
05
EA
F3
D9
DC
17
10
E3
2D
E3
08
19
0E
E8
E9
F2
CB
17
C7
FE
F2
FD
EC
E7
EE
AC
E2
EB
BF
EC
08
FD
38
0F
29
43
F6
26
E4
E0
20
1C
E7
D0
D3
F6
1A
0C
B9
FF
C3
F1
B6
EA
E9
CA
D0
C7
04
12
FC
16
FD
E2
DC
E8
30
10
02
D8
F9
F3
DB
E6
1F
22
14
DE
D9
CA
F0
B6
FD
BA
E2
19
E9
1B
0B
18
1A
E7
2A
09
12
FB
EB
07
C8
23
FA
D0
E3
D6
21
E3
20
BE
0B
EB
BE
14
EA
36
E0
54
E2
1A
23
1F
0F
08
F8
09
0D
09
D2
CA
E0
09
EE
33
29
11
F3
C0
C1
A4
D2
FA
18
DE
35
29
47
0A
18
04
1F
26
F1
5B
1A
EB
00
01
F4
D8
E8
F7
02
DE
F3
FE
D3
13
CA
13
12
37
35
06
12
0D
03
1C
FF
0F
19
C9
0A
F0
E3
F4
D2
21
F9
0F
13
18
DC
E7
F9
DE
EA
32
2C
28
13
31
DD
17
EF
08
04
EA
EE
10
C7
CF
1F
F1
CF
08
A6
E3
FE
D5
D8
32
29
40
15
09
F4
22
38
24
29
08
ED
03
1A
1B
18
42
0D
04
03
10
FB
D2
EC
21
37
F5
0C
F8
04
26
FE
09
23
D1
0C
17
F6
0E
15
30
05
02
02
04
4E
FA
FA
D0
EF
04
29
EA
0E
FC
E6
2D
EE
FD
3E
0C
0C
22
33
43
27
F2
16
19
FB
ED
CA
E1
F0
CF
EA
D6
13
F6
17
08
17
57
27
E3
19
16
0D
F6
34
05
09
38
00
3A
10
D4
0A
14
02
08
D5
E7
07
0E
07
02
E9
08
64
E3
FB
15
34
2B
39
13
38
EC
51
FA
DB
1C
36
F9
F0
15
1A
0D
EA
DE
C3
BD
EB
C7
03
11
4E
EF
2E
08
FA
40
F7
F0
62
14
10
23
BF
E0
3D
F6
F8
FC
FC
F6
DE
E4
18
B9
AF
CB
C6
DD
1C
18
2A
2F
0E
17
0D
01
43
32
02
0D
04
1F
E3
F5
E6
FC
F2
02
F2
22
F8
42
C4
02
C8
F0
FE
0F
E5
BE
ED
22
07
0F
F2
02
12
FB
EE
21
D6
F4
E3
FD
EC
22
25
F0
0E
54
04
D8
F7
FC
22
F0
F9
CB
D5
FD
E0
F2
08
F2
08
DC
06
F8
FD
2E
13
0E
19
1D
D4
00
39
4A
01
0C
ED
DA
06
CF
F5
DD
FA
F0
BC
A9
BE
06
D1
03
FF
C0
02
CD
EA
EC
C0
F0
0C
23
22
32
0D
F2
09
05
E5
FF
C4
BD
C6
9B
A3
DE
EC
E6
38
C5
0F
DA
F4
0E
0A
25
0B
17
00
F1
F9
F2
0A
DE
F1
FD
1D
F7
DA
D4
D2
D9
D6
CC
F4
F4
F7
1B
C4
DC
D8
09
13
E1
31
10
E7
FC
2D
0C
3A
0B
0B
ED
D7
F9
F5
CE
B3
C8
EC
C4
CE
29
BF
1A
E2
D0
FE
33
05
21
E8
07
04
1F
10
01
FD
2D
F1
FC
F1
0D
AD
AA
A7
CC
E7
EA
FA
1F
E9
FB
16
D1
F4
0A
FC
1A
F3
F1
FF
06
25
EA
27
09
12
FC
C3
E3
E2
B8
A9
B9
F7
F8
DD
1E
15
F9
FE
F6
0F
10
0D
E4
16
CC
2B
EA
0A
F2
45
09
14
4E
16
BA
BA
B6
B6
DD
EC
1D
EF
DA
4E
EB
FA
D4
05
FA
FE
FC
33
F3
FC
F8
09
06
CB
3F
E6
0E
BD
CB
C8
9F
E3
E0
24
FF
FE
E2
0C
FB
E1
D7
CF
F8
D0
03
F4
ED
D6
DF
09
EA
FD
2D
2C
E6
BA
A3
80
C7
0E
09
FC
E8
E5
F9
09
FD
EE
1C
0B
F7
2D
FA
04
EF
61
DB
FF
01
3A
06
43
F7
B8
AB
A9
D4
E7
FD
21
E4
1F
EC
ED
0E
B6
32
D6
19
F7
33
18
08
16
26
E6
0A
0B
25
0A
E5
D5
95
BC
17
D0
2A
1A
39
0D
37
04
0E
02
EE
FE
E0
E9
E7
EA
D3
D9
0C
E6
14
FF
2B
01
1D
9D
A3
A5
09
DD
F4
D8
24
08
DA
FD
0F
16
CB
2F
D4
14
F2
FC
02
2E
28
F6
1B
E7
12
3F
DD
AF
95
CB
ED
D3
02
26
FC
08
1D
0B
E2
F2
E9
E5
F1
B5
2D
38
49
0F
2A
24
FA
16
FA
10
F3
CF
EC
0C
2C
2F
31
FE
E4
04
E8
E1
EA
E0
01
D2
2F
09
11
04
0F
13
E1
13
11
03
1D
DD
35
F4
39
4E
E7
40
30
14
FB
05
09
E7
56
C0
EB
EB
FD
1C
F1
00
FD
E3
1F
B7
F1
0D
01
23
5A
3D
02
E1
09
13
BF
1C
31
EA
21
DF
00
FA
10
EA
CF
E7
FA
C6
EB
0C
FD
1A
03
FA
09
22
42
FE
E4
02
FA
18
C6
2B
1F
0F
1E
3C
BD
FF
FF
F4
15
2B
FA
FB
FF
0D
FF
EA
28
23
40
04
F6
20
5F
1E
1E
0C
0A
14
2C
F0
F6
05
0F
EA
FF
E9
E3
32
16
F1
2D
29
1E
E1
30
FA
0B
09
CA
27
EB
F0
30
44
3F
FF
F5
22
17
DD
BA
E9
D9
F6
28
D6
FB
08
24
EC
FA
15
09
3A
01
19
2A
1F
EB
F4
01
06
07
12
FC
1D
36
DA
08
FD
F7
E5
B1
0E
FE
E4
E4
0D
FC
AF
EB
2A
E6
C1
F1
03
F2
E2
2A
EE
F0
05
22
EB
2A
1E
FE
08
0C
E8
0D
D1
31
19
2E
FA
21
19
2E
1F
1B
06
0C
0B
E7
10
F1
F8
13
50
CF
EA
22
C9
0F
DE
DE
E1
0C
25
FB
A6
F2
FA
25
13
D5
FC
46
FA
2E
FF
DF
E9
0A
FA
FD
26
42
08
25
1D
B7
06
37
D7
D8
D7
06
07
D3
16
05
0A
04
11
EE
16
C4
09
0F
E5
01
00
DB
2D
1E
42
02
FB
0D
E2
EA
07
F3
01
CB
0C
E5
15
03
E8
41
09
FC
FD
04
0F
E8
D5
B2
00
28
F2
0D
00
F6
09
EE
11
E2
DD
E7
05
E9
0D
EA
F7
FF
E9
09
F9
0F
18
21
07
E4
10
1D
2C
12
13
07
15
0E
4C
03
D6
3B
EB
E3
E2
17
FE
F0
C9
DB
05
0D
EC
04
C4
EF
E9
D5
C3
E8
F9
11
FC
0C
15
1D
10
02
F4
07
F7
E6
FC
FF
25
DE
05
0D
40
00
02
49
16
CF
FC
F0
02
EF
D6
16
27
EE
EC
EB
06
35
F3
F0
D6
C3
F9
B9
28
23
F4
17
0E
01
D2
1A
FD
F4
36
FA
05
16
CB
19
DC
01
D9
EF
00
06
05
05
E2
07
F5
11
E2
05
E0
11
F6
1A
F6
1D
1F
21
1C
0D
33
E9
AC
12
42
C5
D3
52
28
50
38
39
F3
15
0A
17
E7
24
07
DA
41
1F
22
09
22
06
F1
0C
FD
D6
FA
41
09
48
F7
F2
E5
52
22
FE
15
0B
EF
F3
FD
EB
35
E8
EF
EA
34
E9
FD
F7
0F
16
1A
0F
2B
F8
DE
3B
2E
14
02
5A
02
D8
53
EF
E6
E0
F3
F6
EB
2D
07
26
1F
05
FA
15
27
16
12
05
F1
18
D0
E9
17
11
EB
48
26
1C
22
D8
13
07
13
0E
2B
12
0A
BE
32
F9
E5
1B
D5
E8
21
2B
17
E2
32
E2
F9
F9
08
2E
F4
FB
E4
BD
09
27
F6
DB
22
D1
FF
28
3C
0E
17
E2
12
E7
DB
EB
D5
3B
CD
2A
E6
C1
24
0C
18
11
0C
43
DD
FD
F4
DA
06
15
27
14
FD
0E
FD
E6
1B
3E
F9
06
ED
07
0D
F0
19
F6
26
E5
11
0A
E8
CB
D1
FD
F2
12
CE
08
38
D6
0A
C3
C3
CA
D3
D0
05
E3
29
15
E9
F5
0D
D3
F5
0F
1C
0E
0C
0D
FE
05
1A
EB
EB
33
10
F9
17
1C
DE
FE
F2
10
1C
30
FB
24
E3
13
1C
F7
2A
E3
26
13
05
F5
00
2F
DD
15
03
10
21
F7
FD
D9
F2
BC
EC
1D
17
08
E4
09
01
17
1D
FC
F0
FF
DB
FB
0D
EA
C9
0D
F7
05
13
0A
22
12
27
0B
F7
FE
CB
AD
06
2F
F6
19
EA
0A
E8
05
2E
D5
2C
CD
13
00
00
E7
15
15
BA
EB
57
E2
07
DA
10
B4
DC
27
03
20
10
F9
0E
0C
03
E0
FD
E5
B3
38
1C
38
D2
10
00
1F
EF
04
DD
1B
04
16
BB
D8
E1
F8
17
FC
09
ED
C9
EE
F4
E8
CC
20
04
0E
F2
25
38
29
07
EF
0F
2C
01
1C
EA
FA
F7
CE
E4
41
16
25
2A
FB
22
E7
11
25
0A
F4
D4
DA
E3
12
EE
F3
E6
A3
F3
3A
25
21
02
C4
CC
1E
F3
15
0C
52
0A
F4
05
0B
4E
D8
BF
FE
07
FA
E6
F8
D8
18
29
00
1E
38
0B
1F
41
EE
D7
D7
FF
4A
51
4D
32
13
DE
B9
F2
CB
F3
02
FA
11
FB
FD
1C
FC
16
34
F7
11
2B
E8
E7
07
D0
CB
D1
2A
3D
36
43
16
16
EC
0C
0A
F8
0A
FB
00
08
04
27
0D
F5
16
DA
E7
54
0C
06
CF
CC
EF
0B
17
20
21
37
46
3B
13
0A
DA
19
DC
2A
16
13
1B
3A
1B
F4
41
B8
21
E9
E9
01
DA
BB
DC
FF
36
4B
47
20
40
02
36
DB
D6
0B
49
0A
E0
C3
05
1F
3A
46
14
01
4E
19
07
E3
F2
07
C2
25
06
FA
3D
05
3C
6B
EE
04
24
0C
17
0B
1F
F4
E6
F7
F3
30
FA
1E
42
2E
EF
12
0B
C9
F3
C4
2F
23
48
32
3E
FD
3D
FF
07
16
F7
08
E8
35
F6
F8
19
24
01
08
3C
2F
0D
CE
03
D5
F3
17
29
D5
6E
ED
1A
51
20
39
0F
3A
1A
13
25
FC
4C
57
E8
F4
ED
16
FA
E2
06
EC
E8
FF
28
14
01
2E
13
46
17
F2
22
30
3E
15
07
41
03
07
0D
23
ED
F1
DD
EF
D9
3F
FF
F6
AE
DC
08
1A
F6
21
38
4D
1C
ED
2F
46
DD
0F
1D
5C
10
FA
ED
E8
D9
31
FA
20
E1
27
DA
FB
CB
E7
DA
06
FF
DC
2B
15
F5
E1
1D
0E
E2
10
E6
2F
E0
EF
3F
4A
38
2E
FE
F7
10
D4
02
2D
D5
EB
38
F2
F2
1B
F8
D3
E0
D7
C4
F5
DC
C6
1D
00
03
15
09
EF
D3
F5
F6
04
D5
F2
FA
EB
28
C8
0C
4D
2B
19
D9
E0
D2
05
D4
D6
DB
F7
C9
B5
ED
CA
10
24
ED
16
F7
E2
ED
23
3B
10
18
E6
0B
EB
13
E2
0B
D0
F0
E4
DF
F0
FD
F0
FF
2E
E5
DB
2A
18
08
D5
0B
DC
28
D0
52
1D
1B
4D
1B
FE
12
2D
D2
00
E3
F9
26
EF
BF
D4
E3
A6
31
E3
01
17
16
39
D9
26
17
2C
3F
0D
E5
E0
FB
BB
07
D2
CD
16
E9
11
DF
E7
05
09
C2
EC
DF
0A
FD
EE
0C
F1
32
F7
2A
1E
E5
00
06
BB
0F
3B
F6
FA
0B
07
C5
FF
27
1F
19
F4
F3
BC
F1
1A
D2
F0
E5
F9
13
43
E7
04
EE
0E
D7
03
F4
F0
FE
C9
C1
06
1B
09
1B
16
E2
FC
E7
B8
FC
F6
E4
17
05
18
17
C0
F4
77
54
09
23
0E
E1
E5
28
ED
E6
01
EE
DF
FB
ED
10
0F
F6
EA
12
E9
0E
D9
FB
EB
2A
D4
22
3D
07
35
02
10
2E
07
CE
E1
11
19
0B
0D
FC
BE
2A
2C
06
E4
D2
FE
F0
2E
29
EA
01
16
F0
21
13
45
FC
01
BE
DA
FA
EE
C9
ED
37
3F
16
16
19
F2
11
F9
F5
E9
05
C1
1D
19
14
C9
E7
3F
2E
19
EC
BC
C2
BE
12
FE
DC
FA
F9
D2
F5
F1
3B
EC
FE
CF
FD
E8
CF
F6
28
13
04
29
0A
16
55
03
34
0D
D1
E2
CB
06
35
1D
D8
EF
E0
FE
25
B8
F0
DB
0B
09
2B
05
F6
03
F9
FA
EC
64
44
2E
09
B8
E2
CC
04
02
5A
F1
1B
0E
25
10
13
0E
16
DC
D5
01
EF
F7
0B
1D
09
E7
26
20
7F
29
E5
A9
D9
E6
F5
D0
F6
02
0D
32
DD
19
EB
E5
EA
D2
BC
C5
00
0C
D4
E8
0B
FD
24
18
3B
35
EA
B2
B3
EA
F7
05
D7
F1
BA
04
05
A1
22
34
C1
04
FE
F6
E6
2B
FC
25
FB
EF
18
51
35
37
08
C4
05
E1
0C
D5
F9
E7
11
CC
1B
E4
FB
FC
D9
EA
06
09
DE
E0
FE
12
EC
2A
3C
5B
26
F9
EE
E8
E1
E2
2D
0B
EB
F6
14
E5
07
01
FD
F3
14
FB
F4
0D
D9
14
0D
30
04
FB
18
0B
39
1B
AE
C7
EE
3A
2E
29
E8
F1
BA
EA
E7
06
31
DB
00
FE
F8
DA
E9
C3
01
06
EE
20
FE
55
0F
D0
CD
02
0D
F9
E6
00
3A
F2
08
05
16
D5
20
D5
D6
1B
F4
14
E6
F5
FA
27
16
F9
12
55
F7
D0
02
F8
F9
08
F0
14
E2
F9
1C
D3
DC
19
DA
C1
0D
00
F3
05
FC
06
F3
FF
12
DC
1D
21
0B
1C
18
EB
19
33
BA
E3
F8
38
DC
16
FF
DC
0D
EF
F2
04
EC
D5
43
01
08
0D
2A
14
2F
EE
19
FA
EC
1C
22
5B
06
FD
E8
DC
03
23
ED
BB
5E
12
D0
3A
09
FB
03
FC
D0
D1
3E
F8
10
F0
51
E6
BD
F8
2D
FA
F7
EB
C5
E3
F0
FB
F6
09
E3
39
09
8C
1F
EE
1E
0A
FA
EB
18
D0
07
00
D1
0E
F1
35
32
23
DF
38
E4
DD
0A
FB
D0
08
ED
1C
16
C8
20
F4
EA
FD
EE
F2
C7
C4
C7
D3
19
E7
F3
20
DE
0B
E0
FB
0D
07
2C
CA
DD
27
0D
05
6A
03
39
0A
2C
16
0B
FA
DC
02
E0
27
CC
FB
23
2F
F7
E1
F6
0C
D7
CF
E9
09
14
DD
20
E6
E3
23
26
D7
ED
09
10
F1
FC
E7
F2
EB
26
57
33
15
3E
14
23
E1
B4
DD
E8
F2
E3
C2
FB
F5
E5
15
D2
51
C3
52
FB
EF
DB
E1
B5
D0
D8
0B
EE
E7
21
35
F5
F0
E2
07
CD
0B
2E
C3
1C
05
FF
F8
FA
31
12
F9
0D
E9
C0
CF
1E
C8
21
CF
E7
FB
F6
D5
E2
05
E2
B9
06
C9
0A
FF
FE
D0
1B
05
0E
2A
DF
E5
E1
F0
E1
0A
CE
FD
0E
EB
E1
02
D3
E6
BB
DD
FA
C7
05
0B
1F
16
E7
0E
4F
12
E5
FE
1F
04
18
F2
F0
05
2E
F6
06
1E
13
17
DD
EF
F5
06
EC
0E
09
F6
48
24
30
0D
2B
1C
13
10
F9
0F
07
E7
D4
06
10
20
D7
2B
EA
C8
19
D0
EB
D9
FC
97
3A
08
1D
1B
F9
2D
3B
28
25
20
ED
24
EB
DC
E9
35
03
EA
0C
F5
AD
21
F9
E7
EF
FE
C3
13
46
21
14
2D
F5
0C
04
1E
15
19
F8
EC
EC
DF
0B
E3
15
F9
BD
C1
EE
E3
DD
E4
05
1A
F3
05
2D
3F
14
3B
10
DA
F2
E4
1C
E2
36
08
04
FF
F0
FF
FC
10
F0
B6
ED
05
CF
E2
00
B3
FC
23
01
EE
F6
0C
1A
3A
0E
ED
3C
F2
0F
AE
1F
B0
2C
23
D2
E9
D6
F9
CC
D0
DD
F0
1B
0B
07
EB
17
33
21
28
E2
02
33
00
E8
29
21
ED
0C
CE
0C
B1
FA
EF
E4
F3
01
06
D4
E4
D5
03
05
FA
23
24
F0
DE
FC
0F
27
D1
CB
E4
03
0E
27
CD
E8
09
D1
BE
FD
E0
EF
F4
02
05
04
DD
16
03
F6
4B
0E
FA
16
E4
E5
1D
22
FD
32
16
18
F9
4D
DC
28
DC
A8
BD
28
B1
CD
11
F9
00
ED
0E
08
02
13
19
02
E8
C1
FC
FF
E3
ED
F5
F1
08
E2
14
E3
0A
25
05
FA
08
BB
F9
CB
D8
06
B1
17
F9
D9
02
E8
17
FD
DB
3C
10
E7
E6
F0
21
F1
E8
F1
D5
EE
0E
05
FF
0D
EF
E9
E3
22
E9
04
FC
0B
16
01
05
03
D0
36
0E
1A
27
EB
C3
1A
D8
E2
EE
E0
DB
C2
D3
D9
1E
F3
06
C7
C9
FF
2C
26
08
F8
08
FE
37
2F
E7
EF
F0
27
D6
04
1D
07
DB
13
EC
DA
FD
14
21
06
E5
E7
EC
DC
0E
19
37
38
0A
1E
2E
0E
FE
35
FF
FE
FF
EE
DE
0B
E2
BC
04
01
DA
F1
08
DD
E2
01
FE
13
10
2D
13
40
23
FD
18
DB
F4
EF
FD
1A
E4
DD
D2
FD
00
E1
D2
2E
08
EB
25
09
E7
06
17
F7
E8
E1
EF
E4
19
1B
0E
0F
07
16
CD
EB
2C
F0
E8
2E
E9
27
EE
33
DA
CF
26
19
29
F8
EE
2C
20
34
3C
2D
ED
0F
FF
4C
10
23
FE
F5
E9
C3
F9
F8
FA
F5
12
C9
33
06
C8
C3
06
1A
DD
F4
E1
FB
E0
2C
F1
FA
6A
F1
D1
28
04
07
16
3A
15
F2
DC
CA
F5
FE
E1
E9
EC
21
0D
F9
F4
19
EF
05
F9
39
25
54
FD
01
CF
E7
EA
07
CC
E2
D6
2D
AD
DF
D5
C5
D2
F0
CF
0D
03
CB
0A
25
10
2F
2B
49
20
F7
08
43
0C
F0
FE
EB
E5
FD
D7
E4
0C
C6
C7
E7
0F
50
15
9E
CB
FB
F5
11
2C
F7
15
CC
12
03
0C
0B
05
E6
18
EE
0E
DE
F5
0B
FD
D2
15
BB
EC
2B
0A
02
0D
F1
12
C7
D7
1B
DC
4E
42
2E
29
FA
1D
DB
F9
E5
FA
14
F3
E2
EC
D9
DA
07
B8
1E
C9
E6
E2
ED
DA
28
38
F8
1B
2A
06
F0
1D
F0
31
00
D3
0E
CC
D2
FF
EE
0F
F3
DF
DC
D9
E6
D8
0C
F2
FA
E8
DF
FA
1D
56
31
27
08
FC
FF
F1
41
B7
B8
11
E1
31
C6
B7
09
D5
E4
0C
C7
CA
FD
2E
AE
D5
1A
1A
22
0F
32
24
33
26
D5
47
F6
1B
F8
CE
E6
09
CC
1B
0B
ED
09
0E
C4
94
EE
E5
0A
B7
FB
12
18
F2
08
2C
0F
1A
FC
F0
D0
EA
FA
F8
03
DA
01
D4
0F
C7
DF
11
E1
26
F5
DB
0D
16
1A
00
1E
02
2C
E8
E9
13
D4
09
F8
F1
E0
48
FD
35
05
E9
C2
02
DB
16
1E
0B
1D
04
07
38
E3
17
F8
1C
08
0D
F4
0A
CD
E8
E0
DB
E7
02
2A
19
D2
AE
D3
EC
38
39
F9
09
C6
00
33
D8
1B
26
30
38
E9
09
AB
F4
CB
BA
D9
BB
E0
DD
1B
20
E1
04
9F
C9
B4
07
0F
F4
F6
01
DD
EA
D8
1B
DE
14
4C
01
EE
F0
CA
C8
CB
D6
E2
E6
ED
E8
AB
C9
9B
9A
F0
FC
2F
F6
00
F0
F4
FF
ED
F9
EF
F9
16
F5
08
0D
EA
DD
D5
F7
E8
BA
0C
1F
AE
C1
E4
20
FA
0A
FA
16
1D
F9
F3
F4
F4
26
43
16
F6
D8
E3
00
19
AE
C4
1F
1B
D0
41
15
E1
C8
CA
E8
38
32
49
00
3E
CA
02
F5
E7
02
1E
13
14
E1
08
F7
C4
E7
C5
D2
08
D4
FD
02
FD
22
E8
E4
12
F7
DA
22
0B
DA
1A
FB
FC
28
EC
E2
AC
D1
0D
E9
B5
DB
FC
A5
F4
0C
E3
FE
D6
FF
00
AC
FF
BA
01
42
35
04
D1
FF
CA
30
E4
0A
EA
FA
F7
31
39
D2
9D
DF
00
D4
13
10
EF
B5
D1
C3
F4
27
F1
FA
23
33
28
FF
2C
07
15
00
04
FB
28
E8
FA
A7
11
CC
ED
F5
10
01
07
0E
CA
D2
A6
F2
0C
19
F7
FF
29
11
0D
26
2C
D5
55
F1
02
F7
0A
E9
D7
AE
DB
FE
26
18
42
09
2A
E5
DB
C9
25
E5
F7
1E
16
21
0A
18
20
42
01
FE
14
FA
28
C2
D4
F4
DE
E4
EE
F4
22
B9
F0
F5
FA
ED
EB
0E
11
3F
49
2C
38
4D
EF
FE
F1
45
14
1F
1E
E6
B7
EB
F0
EB
0C
D6
E7
1C
E7
24
15
DE
EB
F2
0B
14
4E
59
32
1B
20
34
1B
19
43
EA
07
16
ED
AD
DB
11
03
1A
FC
D3
06
E1
EE
D3
05
1B
49
27
36
2D
1B
27
19
25
01
02
23
1B
23
EB
E9
CF
D7
18
08
13
3D
FA
07
FF
F7
EF
D6
04
45
12
0B
47
27
0D
66
FF
FA
2D
F6
55
27
F2
FF
F1
1F
DE
05
22
F9
1F
F9
15
EF
8E
17
DC
19
11
23
28
53
26
FB
14
47
06
10
02
EE
31
F4
FB
F9
C5
02
DA
04
3A
DF
D6
A1
03
DA
05
02
39
25
0E
24
16
FF
0E
DD
0C
02
2D
DC
EC
F0
E6
1A
02
FD
ED
FA
0D
F0
D5
0D
B1
F5
42
11
ED
01
06
2A
0E
14
4A
0C
F3
E8
11
E7
19
1D
A4
45
FD
F6
3E
25
12
04
DA
10
BA
0D
E5
2F
D0
F9
ED
16
20
0F
DA
22
DB
1B
01
AD
C9
F8
EA
AB
F2
10
04
10
EA
EA
EF
21
EB
FD
27
47
0B
F5
2C
0F
2B
21
23
07
0E
4C
C5
E7
05
01
F5
07
05
0F
35
06
0D
EA
EB
E7
EF
01
C5
07
E2
E1
2F
CF
04
1F
25
ED
28
EA
33
11
FB
EF
FA
F7
E4
24
01
1E
E8
EC
E1
D3
EE
F1
E5
34
15
09
0B
FC
18
E3
3D
07
07
05
F3
2F
F4
FD
0D
D3
19
EC
FC
0A
3A
CA
09
22
1A
12
2E
FE
12
17
EC
14
37
08
13
2B
20
D6
E3
0D
21
12
11
10
FC
EA
35
15
E4
F2
D7
D4
EF
06
0C
03
28
DC
27
3B
14
ED
C9
19
30
D3
F8
19
EF
1A
2A
0E
24
F1
57
DA
06
E9
28
01
08
18
06
02
EC
FD
1D
F8
07
02
17
63
12
F0
1B
27
27
43
FD
21
FB
FA
23
F0
FE
D1
E1
DE
1F
0A
0A
17
F3
09
0E
ED
F3
0F
E2
CE
EE
10
17
4D
22
F6
E3
FA
F1
10
FC
21
00
D2
08
EC
16
03
E8
31
40
FC
DF
DF
0A
E6
C7
06
05
DE
30
D7
D9
CB
FA
19
F1
25
27
20
DD
1D
F2
16
01
DD
29
27
3B
20
1A
F5
30
DA
26
F2
06
0B
21
0B
FE
13
1A
2B
23
BD
1C
22
33
1A
08
E5
13
14
F8
CA
FC
0A
EA
38
14
27
03
04
CB
07
10
EF
D0
FB
20
04
C8
05
0C
DB
F0
1E
3F
1A
2A
E3
E8
09
1A
EF
F1
0A
04
3E
0C
0F
01
0B
23
DD
D3
FC
11
1B
1A
DA
CE
00
D1
2C
0A
E9
2A
12
13
17
22
17
3D
39
0F
16
E4
0B
05
10
EF
1C
17
4E
F4
F5
1D
EB
CB
F6
F7
4C
FA
EB
D4
16
24
F1
3E
E9
C8
00
18
F6
EF
FE
D7
DA
0A
E9
ED
DD
00
00
0B
09
F3
60
39
24
D5
E6
FA
25
F6
0B
E3
EB
18
31
10
17
EF
21
09
32
F8
EA
D4
B9
F9
FC
FA
01
0F
15
F3
CF
09
13
00
04
F4
DF
F3
F1
28
ED
F4
0E
07
CA
01
E3
F1
B3
0A
FA
F0
07
D1
17
FC
15
25
43
0D
1B
FD
F2
33
FF
B5
C2
18
E6
25
21
CE
E5
F2
E1
DA
FE
09
FE
E8
D2
F7
FB
F6
FF
09
11
FA
31
13
1D
10
13
1B
DF
38
D3
22
14
12
01
D6
CF
FA
0E
D7
FD
01
DA
0B
28
ED
25
0D
0C
F9
14
F0
E2
DE
1A
F6
DF
F9
F6
FB
F4
EF
03
C0
FF
E2
0A
E7
E6
E0
13
21
E5
EC
1C
E7
0F
18
EA
05
DD
ED
CF
16
E1
1B
11
F3
DB
04
0D
1E
EE
F4
E4
EA
01
0B
0F
4A
EC
FF
20
00
11
E3
E1
08
3A
1A
2A
09
DA
13
F7
4C
01
06
D3
15
D8
3E
36
08
FB
EE
0D
0A
0D
C4
DD
15
18
2D
DC
21
52
25
05
13
04
C5
1C
01
33
FC
FB
03
0D
36
03
EE
3D
14
0D
05
CE
0E
1C
35
21
FB
D9
0E
16
D4
F3
D1
CC
ED
FB
E5
27
F9
FD
12
15
28
37
38
2C
D5
C4
F6
F2
F9
12
05
55
20
00
E4
00
EF
E7
FD
F0
D9
17
00
EC
02
44
36
DB
25
EB
20
10
14
DF
42
CC
C3
40
B6
45
FE
42
F4
F9
1C
DE
15
FB
F9
FC
1B
CC
1E
06
F0
1F
19
2F
F7
24
15
0D
1C
C7
20
C2
C2
EF
F9
04
05
01
05
6E
FD
F5
15
1E
32
21
23
FA
15
D9
4F
EB
21
23
15
32
0F
09
15
0B
E9
2C
F9
13
04
14
05
21
E1
1E
2A
D1
3B
F5
1D
18
23
F8
01
09
FB
26
6D
FF
15
02
FB
EC
23
E2
E3
26
3B
17
E3
27
1A
31
F6
34
50
F9
2E
0C
33
EF
12
0E
25
23
39
2B
E0
06
D4
D7
E9
03
02
E8
F8
C6
CD
F1
25
2A
17
13
15
42
28
41
BE
F2
1D
32
D6
2B
DF
1A
FA
F8
E0
E0
02
D7
0A
22
E6
FC
17
FE
0A
E8
28
E8
3A
03
02
C9
2F
39
EF
1E
29
E8
08
BE
42
21
D9
14
CF
FB
22
21
1F
0C
07
10
F5
F6
ED
20
2B
D1
09
31
18
51
FD
39
0F
0D
43
30
23
03
0A
D5
CB
FB
1D
25
F1
18
EE
2A
F2
2D
F3
43
F9
16
3D
FB
ED
FB
E1
23
F2
10
FC
0D
F9
49
02
E6
FF
F9
40
12
09
16
30
DF
EE
F2
01
E9
18
0A
EA
DF
26
F2
F4
03
2E
0E
E6
F9
E2
2A
FD
ED
E5
F9
15
EB
2B
23
04
05
E4
3A
FB
EE
B6
29
19
F5
50
F8
F3
01
2A
20
14
FA
1C
F9
13
F6
00
06
29
3F
E9
3D
2D
20
ED
13
E9
F1
24
29
08
F4
FD
35
ED
2B
06
0A
02
19
ED
02
C9
E1
4F
EA
28
EC
25
FA
FC
07
2A
35
FF
19
00
13
D7
F3
1C
DE
1C
17
F3
0E
0D
EF
0D
EC
E8
23
37
FE
CB
F2
0B
4C
51
E7
E4
00
D9
EE
FE
DF
BB
17
1C
E2
09
36
09
F4
E1
2B
0A
C9
07
44
13
F8
29
32
E0
03
4A
F6
FC
00
D7
C8
15
07
08
3D
21
F0
EE
E5
E0
12
D7
F9
04
10
00
16
E7
1A
2F
E0
F9
FC
F2
01
A4
DC
00
1D
FC
0A
E9
04
D3
E3
F5
16
FC
F7
07
17
0D
1A
E9
F6
D9
18
E4
15
1F
F7
D1
15
D6
07
E1
16
FC
12
E5
13
DC
E8
D1
E5
45
E2
F2
2F
E2
EC
D4
14
EF
1E
F3
AE
32
CC
E8
19
FC
F3
2D
06
16
18
4A
C7
DC
CC
E4
C5
EB
E9
F5
15
0E
42
28
0E
02
10
0B
D1
16
EE
D3
D2
E5
19
F7
E7
19
DF
03
A5
D0
B5
EF
CC
D1
16
02
F8
2A
1F
26
20
37
11
E3
EF
14
FF
FC
41
14
11
FC
E4
1B
F2
02
E0
9F
B3
D7
D8
D7
22
FD
BD
F7
3C
0C
1D
0F
0D
29
08
CA
29
FE
E9
E3
E3
04
DE
46
05
DD
D8
BD
8B
A2
FC
C9
F8
F3
4E
24
F2
1A
32
1B
1A
07
F1
FE
CB
A4
05
BF
FD
F9
2D
12
2F
FF
36
DA
CA
BD
E2
21
38
FE
1D
26
F6
EC
BE
D1
EB
DF
E3
07
00
F7
F9
23
C6
05
15
D9
E5
04
28
E8
AC
9D
C2
22
EC
1E
05
1A
3E
15
00
20
33
0B
E0
FC
14
0E
CE
1A
0D
31
12
F9
2B
30
EF
D8
87
AD
C9
19
47
25
69
E4
D6
15
18
49
09
26
F5
04
D8
B4
C5
1C
C2
32
F6
20
1F
F0
DE
DA
A5
BC
B1
26
07
F5
07
BB
13
18
FD
FD
21
54
FC
1F
F5
24
E2
F7
15
1B
F9
E0
EB
0A
15
12
92
8D
B2
FE
18
34
2B
FB
34
F8
E8
01
08
0F
11
07
F5
F3
F8
E6
FB
E6
EE
DD
28
F4
04
F7
84
BC
E5
04
16
3C
3C
EB
F8
19
E2
26
D7
11
20
F6
31
F7
EA
E5
E6
19
EB
D0
E2
03
0A
E4
8C
D3
CB
00
38
3C
FD
DE
FD
FB
F8
0B
ED
0A
F6
16
0B
BA
F7
11
E7
E2
EA
18
A8
AB
BD
C6
DB
E1
E8
4E
2E
2B
F7
01
F0
08
1E
15
14
CC
21
31
0E
F1
FB
03
F2
D2
FF
E8
E7
F9
E7
E4
84
CC
1C
23
0A
07
14
10
EE
07
04
17
ED
1A
31
1D
F3
01
F6
DD
DF
D3
DC
EC
CA
18
C3
FD
FF
0F
E0
21
3C
F8
EA
0D
1F
26
03
F3
D9
24
E2
1C
02
01
FF
CC
0D
EC
B4
F5
94
BA
D1
B8
E1
23
14
DD
14
11
FE
0F
D8
05
FF
15
0A
2F
12
0D
50
EA
03
1E
10
F6
06
9C
EC
ED
CF
3D
1C
14
22
23
CD
29
30
E9
27
25
D4
FA
F9
06
0A
0A
EE
3C
C9
F0
DF
DF
9A
E6
EF
13
D8
27
32
4C
2B
F6
21
F3
CB
FE
BC
1E
1F
0D
3B
F6
15
EC
0D
E9
EA
07
C9
F0
C3
B8
23
08
E8
26
FA
08
34
04
FD
25
F3
AA
20
08
EB
33
0A
FE
F3
3B
2E
ED
47
2A
DE
1F
0F
F0
D6
EA
E9
48
2D
11
03
21
26
F0
20
13
F4
19
1C
CC
0F
EA
00
00
B9
F5
E1
DF
E7
0F
0C
0B
01
2C
0F
1B
1F
17
EE
E4
01
25
0B
4C
F7
FF
D7
2E
F3
1C
11
03
2C
23
EC
03
00
57
F0
4A
01
1C
12
E9
2A
00
2D
E8
10
D2
07
08
E7
F5
E6
26
16
04
02
37
0E
D4
53
F1
D9
32
05
15
15
0F
2E
0E
E7
37
1F
19
05
1E
03
35
00
38
0D
EF
12
21
F9
F2
EC
41
4D
2F
F7
D2
F0
2C
03
42
0F
22
F0
0C
29
04
4E
04
0C
42
E2
0D
7A
E8
1C
2C
26
1F
17
14
0E
E1
2F
14
35
2A
16
F3
21
0C
19
1E
1D
33
28
F7
E0
F2
26
E9
00
2B
1D
38
10
FD
39
F1
FB
08
E3
05
BB
FE
0B
1E
F7
FF
EF
2D
0F
F1
19
26
FE
97
00
2D
10
E4
15
29
36
FE
29
CC
3E
DF
EE
0F
EB
07
10
D5
D3
07
E1
0C
E8
E4
1B
EF
BE
F2
D8
CA
14
24
05
C1
F7
10
F1
BA
F2
24
0B
12
18
F8
37
1A
5A
23
FE
ED
D2
D7
E0
E2
02
04
F9
21
0B
2F
E2
4C
E7
F6
42
E6
E9
09
EA
E5
FE
17
0D
15
51
FA
CA
E8
9B
AB
B3
8F
CE
33
FC
08
36
2D
1C
00
18
E0
DA
25
E8
19
38
22
E3
1D
1C
0F
0A
D3
C2
D1
8F
B7
A6
EA
FF
F6
16
0D
2C
22
1C
19
40
0D
DE
2A
30
42
2B
3E
2E
DF
31
17
15
BB
C8
0C
80
9B
CC
00
E9
18
25
01
28
3B
26
37
2F
1F
0A
19
23
23
1E
18
16
F9
30
20
25
C3
13
A3
D8
A9
D3
CB
01
DF
0D
BF
21
28
FF
02
42
FB
C7
38
13
14
2E
16
38
FF
1D
31
E3
EF
EE
FC
F0
CD
A1
CB
E7
C4
0E
F4
22
FC
06
DD
09
2A
27
E7
32
3F
FA
12
3B
E7
E5
CC
FF
07
11
D2
D6
F8
CA
BD
10
E2
EC
ED
1B
45
1B
01
1B
1F
3C
2D
FB
FA
05
29
13
05
E3
29
0B
C7
C4
06
CC
E5
D0
E5
08
BF
C4
FA
FC
07
EB
07
0D
21
2A
F6
12
3B
D4
F1
0A
18
F6
B0
EA
0D
07
D7
EA
04
E3
B7
DF
DD
D5
1D
F5
05
24
14
EE
FF
13
DF
15
31
31
16
F6
D9
E8
19
48
17
D9
E1
BD
D9
E9
F7
D5
B3
0C
E1
D0
3D
DC
F3
26
FC
37
32
F9
26
1E
FE
FC
05
20
E1
E2
EC
0C
D2
D6
F0
F2
C6
F1
EE
D7
05
FF
E9
D9
D1
F5
F6
24
16
0B
06
D5
F8
DD
FC
F8
C0
1E
F4
E7
0E
00
C8
D1
C1
C7
B0
FE
1A
F8
4E
58
0A
0F
DA
19
1E
FB
07
D5
08
0D
C3
04
DB
F2
2A
E5
30
DA
E7
F0
95
D1
C6
E0
E2
19
2C
06
DF
F4
19
0B
E5
16
16
33
FC
19
12
30
D6
1C
E4
E3
16
E5
C8
D8
AB
BE
01
BB
10
E7
36
FF
D3
00
04
E8
29
DE
0D
13
FA
0D
E1
13
06
24
02
FB
D0
E2
C8
C2
CB
CE
BC
21
EF
0D
CB
01
20
E5
0E
1A
FB
01
24
F3
E3
1F
18
CD
1D
1C
38
E6
CD
EF
0E
E7
B4
A8
F6
E9
02
14
2D
32
F5
10
EB
06
10
1C
02
3D
F2
16
29
BF
35
13
23
1B
FF
EE
BB
F5
B8
21
B6
B5
EA
11
20
1A
19
09
18
37
28
FE
3E
FB
06
08
11
F4
CA
55
FB
FE
FE
DE
C8
C1
E0
05
D1
FE
A1
11
EF
29
07
21
D9
F7
10
0F
2D
11
F5
ED
0F
40
13
1F
01
FB
E3
D4
AD
F6
B6
BB
AD
F7
FF
31
29
03
CC
F9
08
16
15
C7
44
44
F7
23
21
2F
18
0B
04
24
DD
C0
05
B1
A1
0A
E1
F0
FD
13
DF
2C
1C
0B
FF
04
15
36
44
F1
F9
09
F3
25
F9
FA
05
0D
E3
BD
C9
DE
BF
E5
FB
C0
B1
18
E1
09
F5
13
FB
E5
13
08
1F
18
FB
21
0D
20
01
36
0F
D1
CD
F6
9C
00
DF
EE
C7
FB
A6
53
FA
EA
0C
15
10
FE
2D
E7
29
32
49
1E
58
1C
29
2B
EE
0F
C8
14
B2
05
C1
B9
D8
EC
E8
FB
0E
25
1E
EA
E4
F5
FE
DF
12
E2
E7
4F
1B
26
E8
4A
22
D4
EF
9B
D2
AB
D5
FD
D4
B5
F1
DA
15
0C
F7
FB
1F
26
EC
E0
08
08
51
35
1A
47
36
F0
11
CD
CE
A7
F6
92
E4
0F
C5
1F
09
F0
1F
46
CF
3F
D2
0C
1B
0D
36
19
22
3D
38
F6
3C
1D
EB
E0
A0
A9
F0
A9
B2
52
D1
D2
C3
F1
12
07
F4
F4
E9
C1
0D
CD
22
36
13
2C
DA
DF
1B
E0
13
A4
0B
DD
93
E7
DF
F4
C7
00
04
ED
25
02
C0
FA
29
E0
BF
D4
29
E3
04
1F
FA
29
1B
02
E3
EF
EC
D6
03
B6
CF
D9
F1
EA
07
1D
14
2D
25
E3
09
0E
04
17
D5
DF
39
1B
27
27
33
33
4C
7F
5E
56
38
1E
56
1D
67
24
09
02
39
24
42
E0
FE
E2
01
D7
41
40
13
27
2E
16
33
43
32
2C
16
F3
0A
F2
CB
DA
19
10
1E
21
FE
21
C3
B5
E2
8D
EE
AF
D4
DB
0B
14
EB
26
31
F1
02
FF
E3
D1
D7
9C
AD
E3
AE
FE
13
4D
CC
05
B4
DE
BF
B7
B0
EF
F5
D3
E0
26
E8
FD
ED
05
D1
F2
0C
D4
AA
EC
CB
CF
D4
F8
C2
40
F6
E4
E9
FF
DC
D9
E8
C4
F3
08
14
F9
0B
E1
E6
00
D8
E5
E7
CE
D5
CF
23
C2
F1
B4
23
16
15
F2
1A
F4
F3
F7
E0
E1
15
09
0F
15
F1
26
58
D8
F7
FF
F1
3B
0B
F4
ED
16
D3
E3
36
5B
07
CC
F2
0B
DF
F2
1F
EB
E9
FA
2C
33
44
3C
03
27
3A
43
41
07
09
25
F8
25
D4
02
FB
24
E0
F7
C5
AD
25
DE
29
FE
3B
0F
F3
36
15
30
16
4A
E5
22
24
2E
65
28
10
C8
EA
FB
27
FE
0B
BF
0F
BD
E9
E9
C0
F2
2E
1A
35
0F
16
32
F5
2A
1E
2B
2E
3C
34
3C
22
EC
A1
FA
F9
0E
E2
DF
ED
0D
EC
07
10
09
40
2A
F5
25
03
D2
02
FE
FD
F1
1E
33
14
07
14
E3
9F
DD
24
F9
EF
E4
E3
07
F9
CF
17
19
2B
3D
28
F2
3B
38
25
FB
FA
FE
29
3B
EA
21
FC
98
AD
15
17
2A
EB
D0
90
FC
C0
18
02
F3
33
15
1E
1D
C4
0F
0E
37
47
F1
0A
16
26
F9
DA
11
B0
E4
01
DE
DA
BE
D6
D0
03
19
0E
07
39
03
EF
4D
26
D3
0D
DE
0A
EF
3D
1A
49
0E
FA
F9
93
E3
1E
49
C8
C6
B3
9F
BB
08
2A
0D
40
0C
0A
1B
0B
35
2D
E9
FB
FD
40
2C
25
F4
11
D0
D4
E6
24
ED
0C
AB
A1
AD
C2
ED
1B
DB
08
14
0F
FB
01
13
02
1F
F7
15
27
15
46
4C
F1
BE
D1
E0
53
F9
F8
C9
EC
B8
F0
F0
7F
26
01
2C
09
23
FA
E9
0D
13
00
07
30
21
13
26
E8
17
E1
ED
F2
5F
FA
93
E3
FE
F7
34
E0
1C
3D
DE
2D
23
26
35
E0
1B
E2
F6
50
08
FF
EB
03
FA
02
22
E9
38
E5
A4
9C
12
15
13
2A
1A
1D
3F
13
F5
2A
FC
D1
24
10
07
09
2E
13
17
1D
ED
F0
1A
F5
2F
EC
86
D9
06
0D
33
24
43
03
09
E8
27
15
02
EA
35
12
3E
E6
54
2A
50
E7
16
FB
19
03
EA
EB
91
F5
E3
0C
16
09
03
0F
13
15
20
FC
33
F2
1A
EC
17
CA
02
DC
08
FE
01
17
E9
58
F2
E5
F7
EE
E3
17
F6
D6
2A
CC
12
32
CC
27
F2
39
2D
26
04
31
0E
12
09
D5
CE
EF
22
FF
F6
C2
DF
34
1B
08
E5
F7
08
F2
20
07
18
15
2B
43
FD
4A
08
E5
20
D4
D9
0A
24
07
20
3E
F4
BB
D9
2D
28
09
18
C0
08
12
1C
F3
3C
D7
21
1A
02
25
09
C7
E4
FC
1E
F0
E0
D6
19
D7
1E
FB
EE
E3
D6
24
C7
01
C3
A6
DD
22
DE
0D
07
15
17
EB
F4
E3
E3
D2
F3
06
F7
0C
06
15
23
F8
C9
D5
F4
C2
DB
B0
D5
EB
DC
F4
17
7E
1B
01
11
FB
C9
E0
95
85
DF
A3
DF
6C
42
C2
08
E2
08
CB
A9
F9
98
81
B4
0B
00
37
05
19
ED
0F
F2
0D
C4
D8
C9
BB
B2
BF
DC
E4
17
17
3E
F4
18
F7
07
F6
E5
2F
E5
FD
DB
11
01
4C
18
25
1C
16
0D
CD
F3
F0
DD
04
F3
1F
EF
2C
13
29
46
F2
37
2D
05
4A
DD
F3
15
24
62
22
1F
3F
20
19
33
0B
18
EC
EA
37
03
46
20
3E
EA
28
E0
DE
25
20
00
2B
18
B9
2A
E8
0F
E1
14
EC
C4
FD
D0
29
E2
DA
08
E2
C8
15
EB
C7
F6
F3
04
0B
CE
0D
FC
36
FE
07
E4
E4
05
F6
33
F6
00
D3
E7
E9
F8
26
02
F3
EC
03
37
06
00
36
3F
0E
FB
02
F6
16
DB
DC
0C
F2
00
FF
24
F1
EB
CC
E4
0A
24
D6
E3
E5
DC
12
08
D7
17
AB
FB
0E
D6
C7
0A
EE
02
00
06
39
1C
5D
04
F9
E6
04
25
DC
E4
DE
24
13
F6
30
01
FB
BC
F4
1B
F7
27
E2
E8
F7
D9
16
34
17
D7
C9
CD
EB
FD
FB
18
06
0F
08
CA
BF
20
F5
D1
18
1E
30
12
1B
D5
E7
04
00
E1
EC
D5
EB
0C
1B
0F
F7
D3
F8
F1
15
DB
01
22
E4
F7
07
E5
0A
B3
13
CA
25
10
26
C2
3E
C8
55
F0
EC
25
EA
EA
E1
F9
17
15
EE
FF
CD
E5
D9
FF
F4
E3
D7
CB
01
D5
E8
0C
22
0D
16
DC
03
F0
D9
02
20
FD
DC
F0
1B
D1
FB
0D
EE
18
04
F1
D2
03
FB
EF
08
EC
0F
F8
EE
D8
ED
1B
2A
0D
09
F9
01
E8
06
F7
2D
1B
B3
0C
15
E5
25
EE
14
00
2A
F9
1C
EC
0E
0F
E8
30
06
FE
D2
0F
F5
A2
FF
07
28
E2
DE
E2
24
12
BA
19
FD
F5
01
A6
0C
FC
16
09
F9
BB
C1
F9
E1
F8
E7
F9
EF
D7
ED
E1
DD
E4
DD
E0
D2
E3
0F
27
B8
D9
1F
F9
FE
03
F6
DE
E4
37
FA
C9
26
F4
2D
FF
FC
FB
DD
B9
00
D7
2E
F3
F5
E8
EF
D8
0A
E8
DF
00
F3
DA
1A
0A
D1
28
E3
36
F1
EA
EF
D3
E7
0B
AD
E9
F1
E8
A1
D6
06
22
FC
F8
ED
FB
FC
F9
DE
E8
1A
28
E6
EE
0D
0C
DF
02
1D
E9
10
0C
1D
CF
ED
07
03
CE
E3
06
CC
14
FB
FA
FC
1D
17
CB
D5
02
0D
30
E6
1D
DC
20
18
F3
F8
1F
D5
F6
1F
F7
EC
05
EE
16
A5
0C
18
03
0C
EB
CD
23
FD
E4
1A
04
16
F8
24
DF
C5
E3
C8
D1
D5
D5
02
C0
DE
E9
BD
E7
18
1B
14
02
FB
0F
F4
F5
13
05
EC
D3
1C
1A
29
BA
E1
EA
EC
14
22
DF
D5
07
E0
E1
04
FA
06
DC
FB
18
1E
EF
D0
1C
BF
F3
00
40
F2
E4
28
F9
F3
D3
CE
F8
E8
F7
E4
31
FD
1B
28
0A
29
19
08
FD
C6
2D
F7
F1
F4
14
00
F0
28
17
04
0D
FE
E1
F2
FF
D8
0F
D4
01
0E
2C
12
36
07
21
FF
2C
2A
FF
2A
DE
E1
14
F5
F8
1D
F4
0D
E0
08
D6
E3
0A
D7
1B
DC
DD
DC
27
03
F8
39
FC
32
EF
35
1E
15
1D
FD
1A
DC
FB
17
EA
0C
15
F1
C6
D4
E8
E9
F2
17
F6
D7
00
1E
F5
EF
FD
29
B9
FD
16
EB
EA
12
41
E3
02
F9
22
19
D5
FA
D6
09
24
F6
F2
F1
10
12
1E
15
1B
0F
2D
E4
E2
4E
1F
F3
F6
FD
FC
16
04
18
C5
29
0A
BC
FD
04
11
F9
01
E0
FC
1D
2A
FA
0F
F6
E8
FA
E8
FF
F5
1F
F8
F3
12
23
14
2A
10
19
37
07
05
F3
EA
2B
1A
15
0C
CC
07
D7
1C
18
09
F0
34
D7
ED
F8
06
08
17
E9
19
04
EB
CD
3E
D9
FF
08
20
CC
3A
F2
15
FD
ED
EC
2F
E8
EA
1A
35
FD
26
E6
F3
3A
0F
F1
10
32
1D
2D
E5
0E
09
E0
1D
1F
FE
F5
12
F1
12
DD
3A
FF
17
0D
F3
05
E8
EC
EB
32
E7
22
13
EB
3C
23
0B
EA
0B
1F
10
C9
07
0D
FB
F6
C4
0D
26
09
F3
31
53
D7
FE
FE
10
E6
F2
19
E1
E4
17
0B
D7
FC
F7
17
10
D2
EC
14
0A
2B
12
D8
0F
E7
E8
E5
41
E3
22
3C
