3A
A3
B0
1E
20
E6
B4
78
A7
9B
80
4B
80
0B
E0
9D
EF
20
09
7E
DC
44
C9
E1
BF
17
3B
97
0B
F3
54
A4
C3
1B
F4
4B
3D
EA
80
80
26
69
FA
13
F9
6B
01
33
33
AD
48
7F
80
81
3B
80
D2
80
7F
4F
4A
84
E9
18
2C
25
AA
80
7F
AF
CF
80
BB
52
FC
58
C5
C5
7F
02
0D
05
27
20
BA
F9
CF
80
CF
1F
8C
80
11
B5
C0
34
D0
B6
BD
8C
E8
60
85
80
B8
45
03
EF
1E
EE
4A
79
2E
FE
19
0B
7F
C9
E3
AD
ED
B0
69
CF
C6
A8
5B
5B
E9
83
24
D1
80
02
24
F2
1D
E2
55
08
BC
31
A5
7F
35
CF
FE
7F
54
D1
D5
7D
C4
57
C8
E6
80
05
DE
F7
1E
20
22
EB
35
9F
EC
75
0A
80
CC
80
E7
C0
F1
16
47
26
FB
D8
F4
70
A0
F9
09
92
22
E1
84
E1
78
C1
C5
80
C0
B4
F9
0B
DA
7F
1A
51
CA
2A
01
0E
AE
A2
F8
ED
7F
AF
1E
46
2B
2F
72
BE
E7
C0
C0
45
F4
07
E2
3A
FC
E3
80
DD
6F
E4
00
0E
8F
E4
B2
7E
20
64
24
DC
39
86
E7
C8
BF
05
A5
80
FD
7C
CD
AA
4C
C0
07
B1
41
A1
80
5A
45
C0
F3
41
81
80
80
0E
14
0C
F5
B8
21
3C
80
3E
06
AE
0D
DE
C1
09
60
BD
21
83
A3
23
80
0F
3D
9E
7F
AD
2A
7F
98
C8
